#version: 0.2
Ġ t
Ġ a
h e
i n
Ġt he
e r
Ġ s
o n
Ġ ,
r e
Ġ w
e d
Ġ o
Ġ c
n d
Ġ f
a t
Ġ .
Ġ b
i t
o r
Ġ p
Ġ in
i s
e n
a r
Ġ m
Ġo f
e s
a n
a l
in g
a s
Ġ d
Ġa nd
Ġ h
r o
Ġt o
i c
Ġ l
i on
Ġ re
Ġ n
Ġ g
o u
Ġt h
Ġ e
i l
en t
o l
Ġ "
Ġ 1
e l
s t
l e
a d
Ġw as
a m
c t
Ġ on
o m
Ġs t
Ġ he
Ġf or
i m
Ġb e
u r
Ġa s
Ġ -
Ġ Ġ
i r
l y
Ġ u
o t
Ġa l
i d
it h
c h
r a
i v
e t
i g
Ġw ith
Ġ '
u t
at ion
Ġ 2
c e
a y
er s
Ġth at
Ġa n
Ġ j
o w
u m
Ġd e
Ġs e
Ġw h
Ġa t
u l
u s
is t
Ġ v
Ġ it
Ġb y
Ġc on
Ġ1 9
Ġ is
t er
ro m
Ġc h
v er
t h
o s
e m
a v
Ġ k
Ġ )
Ġ (
Ġh is
a nd
a g
0 0
c k
i es
Ġ r
o d
Ġs h
he r
p e
Ġc om
Ġs u
Ġp ro
er e
a in
es t
Ġw ere
Ġ y
Ġf rom
Ġa r
Ġn e
o re
i f
Ġp l
or t
s e
or d
Ġ ro
u n
r i
re s
Ġe x
Ġo r
p p
Ġl e
il l
al l
ar t
ic h
p t
at e
b er
ig h
l d
at ed
am e
ar d
a b
Ġu n
es s
a k
g h
o p
q u
on g
it y
r u
an t
is h
Ġh ad
r it
Ġw he
u d
re d
o g
ro u
Ġwh ich
Ġa re
i an
Ġ ;
i e
i al
iv e
i p
o st
Ġn ot
i a
o v
s o
m ent
Ġc l
Ġal l
Ġa f
ĠĠ Ġ
ar y
igh t
a c
Ġ 3
Ġt w
Ġ2 0
ou r
ct ion
as t
Ġ2 00
av e
Ġf e
Ġre c
Ġw or
Ġhe r
u e
id e
t her
c l
Ġth is
in e
a p
Ġs c
Ġs he
el l
Ġal so
ic al
c c
Ġthe ir
Ġp ol
u re
Ġp er
Ġaf ter
ig n
Ġpl ay
u st
r an
u b
o c
Ġa d
it ion
Ġne w
e ct
Ġf ir
Ġt im
Ġ 4
Ġt e
w n
Ġcon t
g e
Ġfir st
ou s
Ġon e
a ck
m an
Ġa b
Ġ20 1
Ġin t
ou ld
om e
e ar
Ġm an
ou t
Ġa m
Ġtw o
Ġ en
he d
Ġre p
as on
Ġg o
at er
nd er
as s
Ġcom m
i re
Ġit s
Ġy ear
Ġc o
Ġin d
Ġcom p
Ġb ut
on d
Ġd es
ou n
Ġa g
Ġh as
ation s
ou gh
ol l
re e
ur ing
ul t
Ġof f
ar k
Ġ im
Ġf il
d u
o k
p er
Ġa ir
Ġwh o
Ġ 5
ol d
Ġc a
Ġp art
Ġs pe
Ġthe y
Ġ1 8
or y
Ġh ave
Ġbe en
Ġd is
a ch
Ġg od
Ġfil m
in t
ow n
f f
Ġs p
t e
Ġre s
Ġal b
l es
Ġo ther
Ġu s
Ġse ason
i z
el y
Ġ i
Ġu p
al ly
Ġalb um
p h
Ġm us
Ġbe c
r y
en ce
ou nd
it ies
il e
Ġrec ord
ol og
Ġf in
Ġse c
Ġtim e
Ġ :
Ġo ver
ad e
Ġu nder
c ed
Ġe ar
Ġ ra
ag e
it ed
Ġd uring
a ct
f t
cl ud
Ġf l
Ġa p
Ġs er
Ġm e
i ed
Ġp re
Ġfor m
i b
Ġre g
ord an
Ġb l
al s
Ġo ut
ent s
Ġj ordan
Ġm ore
Ġe v
r ic
at h
as ed
Ġan t
as e
r on
Ġre m
it e
Ġb o
Ġw ar
Ġm on
Ġte am
f or
Ġthe m
c es
w ard
Ġin clud
ic e
res s
k e
an ce
Ġb rit
Ġm ost
ub l
Ġ19 9
Ġh im
Ġa ct
Ġg ame
rou nd
g an
Ġin ter
f er
Ġg en
Ġar ch
i ous
Ġt ra
os e
Ġ 6
Ġspe c
Ġw e
Ġch ar
Ġwor k
a e
Ġre le
ur n
em ber
Ġint o
w ay
il d
rou gh
or s
Ġ 8
Ġc ol
p l
Ġc ar
Ġb u
el er
Ġn o
ut e
Ġk n
er ed
re at
Ġre t
Ġe nd
Ġf our
or k
ab le
Ġ 7
Ġa c
ing s
Ġj o
ul ar
Ġpro du
Ġwhe eler
a ce
Ġs ome
on y
Ġp r
Ġsec ond
Ġm in
Ġthe re
re n
Ġon ly
v ed
in s
on e
Ġp ubl
Ġm a
Ġre v
Ġwhe n
Ġre l
t ed
Ġsu b
h ip
i x
s s
Ġw ould
Ġc an
en s
ri b
Ġth ree
Ġcon s
Ġto wn
ae olog
Ġp o
Ġa pp
t le
ers on
Ġwh ile
ul l
t s
Ġa cc
Ġarch aeolog
e y
Ġm et
ot h
Ġar m
Ġc ent
ion s
Ġag ain
at es
an s
Ġn um
Ġat t
Ġim p
Ġs ur
Ġp h
Ġm ar
am es
l and
Ġs y
is hed
Ġl ater
Ġe m
Ġs a
Ġin st
Ġbe t
Ġde v
Ġbe ing
ic k
ation al
Ġn or
Ġth rough
e en
o ck
Ġ 9
Ġthe se
Ġgod s
Ġm ay
Ġl ong
Ġmus ic
Ġs m
is s
j ect
in d
Ġg er
Ġas s
Ġman y
Ġs ong
Ġbrit ish
n ing
Ġs ch
Ġh igh
Ġp e
Ġgen er
Ġs ou
Ġger man
i el
Ġw rit
Ġsu ch
oll ow
Ġf ollow
Ġp res
Ġse ver
Ġy ork
y s
Ġs o
an g
Ġde p
Ġab out
f ore
i et
i red
Ġh ist
Ġm ade
ra ft
ak e
Ġwhe re
a il
Ġ 00
Ġt r
Ġin c
Ġh ow
Ġle ad
g y
ic t
Ġant im
Ġl i
Ġe le
am p
Ġp os
ie w
Ġd ire
Ġsh ip
r ist
Ġb ro
Ġth an
for m
a w
Ġ qu
on s
Ġn ov
Ġpol ish
Ġsu pp
a z
Ġ z
Ġs ign
Ġb at
Ġ00 0
Ġwor ld
u p
Ġ 0
Ġs ing
Ġde f
se nd
Ġap pe
w een
Ġbe fore
Ġal th
Ġv ar
Ġar t
Ġca re
Ġbet ween
Ġalth ough
e nd
l ed
Ġtown send
s on
Ġd iv
ow er
oun t
Ġa ward
er n
is ed
Ġdire ct
Ġo b
Ġd o
Ġthe n
Ġo per
Ġb el
Ġb oth
Ġl ar
ag ue
Ġnum ber
Ġyear s
t en
il y
Ġsever al
in ed
Ġe gy
Ġegy pt
a ir
u g
Ġb ack
Ġ19 8
Ġ ent
Ġd ay
ter n
Ġus ed
Ġnor th
Ġantim ony
at ing
Ġst ud
Ġ19 1
Ġen g
Ġear ly
Ġrem ain
o od
he s
iv ed
Ġch rist
if ic
u al
Ġw ell
Ġf ur
Ġin v
ro w
Ġl o
Ġ19 4
or n
Ġp rom
ist s
Ġ ed
er ic
Ġg u
el f
Ġbec ame
iel d
r al
Ġl it
Ġde c
Ġle ague
Ġad d
b a
Ġt ran
al e
Ġst ate
Ġm ark
Ġbe gan
Ġv al
Ġro ck
Ġdis c
Ġtran s
er t
Ġs l
Ġcl ass
o ol
it s
Ġm ov
Ġdes c
b all
Ġb est
Ġd if
Ġoff ic
Ġc ould
ar s
t y
Ġc re
Ġg old
Ġchar act
u nd
v e
Ġre ce
ot her
Ġfe y
Ġpubl ic
Ġ est
Ġrele ased
Ġagain st
Ġsou th
Ġc rit
em b
pe ct
Ġun ited
e ver
Ġw in
Ġm ain
ic s
Ġl oc
Ġkn own
Ġt ru
Ġo wn
Ġb as
is ion
os ed
ore d
if e
c i
o ot
Ġs et
Ġor d
Ġpo int
k y
u res
Ġp ort
Ġcare er
Ġc all
Ġ19 2
Ġgo ver
iz ed
Ġsch ool
c raft
Ġc ity
Ġf ound
Ġin f
is e
Ġh um
am ed
Ġfe at
Ġam eric
Ġor ig
Ġhow ever
i o
er y
Ġth ough
el e
Ġ19 3
Ġex p
Ġdes ign
Ġair craft
Ġret urn
a red
id ent
Ġinclud ing
Ġgover n
r um
Ġt er
an k
ion al
ur y
Ġli ke
a h
i er
Ġm il
Ġcon st
Ġo p
Ġm ill
id ed
Ġhist ory
Ġorig in
is m
ro l
Ġst e
cc ess
Ġcont in
Ġst ar
ra ct
Ġfollow ing
h n
m as
in es
Ġp op
el op
Ġpl an
ak ing
rou p
Ġser ies
Ġdev elop
Ġ1 0
Ġde ities
Ġne ar
a re
u es
at her
Ġd oll
Ġn ational
us e
u ed
Ġg roup
ĠĠ ĠĠ
Ġpro ject
Ġex c
Ġegypt ian
c ial
e k
p ort
t on
u red
Ġg a
Ġg ames
Ġ1 5
ur al
Ġrep ort
Ġbo ok
Ġdesc rib
Ġf ran
Ġb r
Ġb ar
Ġm y
Ġh ome
Ġe ach
et s
os a
Ġsm all
f ul
Ġs im
Ġs ix
Ġp ar
Ġp ost
Ġin s
Ġm at
Ġg re
Ġst art
Ġhe ad
iv ers
Ġde m
Ġsh ow
Ġsu ccess
Ġrep res
Ġspec ies
Ġbu ild
Ġgener al
Ġa ut
Ġc ult
Ġg un
om in
Ġj un
Ġpe op
Ġsupp ort
Ġs oc
Ġo cc
Ġf le
Ġm ed
Ġd own
Ġg r
Ġjo hn
Ġnov ember
Ġchrist mas
o y
u c
Ġth ir
ce pt
Ġan y
ath an
in ce
Ġs qu
Ġh al
ro ss
Ġst ates
Ġal ong
Ġplay ed
Ġi i
Ġpre v
n e
t ing
Ġs ame
Ġf am
Ġf ive
Ġd ist
Ġto p
Ġ1 2
Ġro ss
Ġpeop le
Ġh y
Ġn athan
Ġg reat
et er
Ġch ild
Ġres ult
g g
i um
Ġo ct
im e
id es
Ġj an
Ġk ing
ction s
ran g
Ġma j
Ġlit tle
Ġp erson
Ġl ist
ut ion
Ġ201 3
Ġsa id
Ġmill ion
g round
Ġa v
Ġw ill
Ġd id
Ġan other
av es
ment s
Ġcol le
h l
Ġc ount
Ġp ower
Ġg l
Ġhe l
em p
Ġ3 0
Ġcomm and
Ġdif fer
Ġ er
Ġop en
n ed
Ġw est
at ive
Ġv ide
Ġis s
pp ed
Ġcomp le
Ġpart ic
Ġrece ived
Ġcall ed
Ġrepres ent
a i
Ġp at
Ġm iss
Ġg e
iv a
iet y
Ġadd ition
o ber
r il
Ġd am
Ġn amed
Ġg iv
il t
il ity
ct ed
Ġ19 5
ag ed
Ġle ft
ib le
Ġexc av
Ġoct ober
u ally
Ġt y
Ġp ur
Ġn ba
Ġhe av
Ġsh iva
Ġro ute
Ġor gan
ru ction
og ra
Ġser v
Ġcons id
Ġre d
Ġ1 1
em ent
Ġsy n
f ield
Ġa ug
Ġh and
Ġe l
Ġse v
Ġpro p
Ġy oun
ill o
Ġun ivers
Ġind ia
Ġap ril
Ġdescrib ed
Ġyoun g
Ġm u
Ġ1 7
Ġpl ace
Ġsing le
Ġtru j
Ġ rom
Ġa ust
Ġs ince
Ġf oot
Ġ1 3
Ġst ru
Ġan n
Ġ200 7
Ġbel ie
Ġcharact er
Ġinf l
Ġmaj or
Ġtruj illo
c ess
e w
on es
Ġm ad
Ġu se
Ġde ce
Ġ19 7
Ġch art
ain ed
Ġcl ub
ac ed
Ġappe ar
Ġthir d
a use
e e
k i
as h
Ġto ok
Ġsh ort
Ġev en
Ġact iv
Ġapp ro
Ġameric an
Ġs k
Ġw om
el s
ot s
Ġcon f
if ied
Ġper form
Ġrele ase
Ġrev iew
Ġaug ust
a u
m ber
r is
u ro
x t
Ġl ife
Ġe ast
Ġe ff
Ġas so
Ġinclud ed
Ġwe ek
Ġinc re
Ġsqu ad
Ġdece mber
Ġasso ci
u ary
Ġo pp
Ġf un
Ġm od
Ġd est
Ġst ra
Ġj ust
Ġpro f
ov e
Ġlar g
Ġgovern ment
Ġvide o
g et
i od
Ġs ap
Ġw ay
en n
Ġth ose
Ġe ver
Ġpro v
ard s
Ġbec ause
Ġtr ad
Ġhum an
c o
g ra
re ad
Ġm or
an ge
Ġwith in
us s
Ġ200 6
ical ly
Ġplay er
Ġpos ition
Ġt emp
Ġa round
in a
Ġb ased
Ġand erson
Ġl ight
Ġn ame
ent ly
Ġst and
Ġr ight
ial ly
Ġper iod
Ġtra ck
Ġarm y
Ġbat tle
Ġdoll ar
Ġjun e
Ġhal f
l s
t il
Ġt ri
in ing
Ġs ite
re t
Ġp ass
ar ch
Ġto t
Ġn av
us ed
Ġcon c
Ġy ou
Ġcont rol
Ġship s
b o
e um
Ġs al
re ak
Ġw on
Ġb ull
Ġd el
Ġl ast
iv ely
Ġse pt
Ġr un
ab l
Ġgo al
te nd
Ġmon um
Ġfle et
r ing
s en
er v
Ġc he
Ġc al
an e
Ġl os
Ġad v
Ġmus eum
Ġacc ord
Ġdirect or
Ġmil it
Ġinfl u
Ġsap rang
Ġsept ember
s h
s elf
Ġa way
Ġc our
at ely
Ġre st
Ġn ow
Ġe as
Ġu k
Ġbu ilt
osa ur
Ġprev ious
m b
o ver
Ġs ound
Ġc or
Ġp ress
ro te
Ġn at
Ġe uro
ent ion
ad o
Ġis land
av ing
Ġbuild ing
Ġaut h
Ġfam ily
Ġaccord ing
o ff
y al
Ġt ele
Ġa er
in k
Ġs it
Ġf ly
Ġf ig
Ġp il
ro y
Ġl and
le y
Ġsu gg
Ġro le
Ġbl ack
Ġprodu ced
Ġthrough out
Ġest abl
Ġmu ch
Ġsugg est
r am
he n
Ġs w
Ġw rote
Ġb and
Ġh ol
Ġl a
Ġj ack
pt ed
ect ed
Ġtim es
Ġcomm er
Ġfin al
Ġinst it
Ġob s
Ġord er
Ġjan uary
ogra ph
c on
g ed
Ġm id
Ġm ag
Ġl ow
Ġl ine
Ġun til
Ġare a
ac hed
Ġper for
Ġdes p
Ġfur ther
Ġmilit ary
Ġperfor man
b le
s ide
Ġ ir
Ġs b
or ing
Ġin it
Ġd ue
Ġl ed
Ġl im
Ġl ond
ul f
Ġch ur
ri a
ant s
Ġpol it
Ġ201 0
Ġmon th
Ġpubl ished
Ġarchaeolog y
Ġarchaeolog ical
Ġpres ent
Ġprom ot
Ġorigin al
Ġdiffer ent
Ġlond on
f ord
Ġt re
Ġt ro
Ġs ol
Ġc ame
Ġb ill
en e
Ġm ake
Ġof ten
Ġre al
ou se
Ġbe h
Ġde b
Ġwh at
Ġ19 6
Ġcomm un
Ġres p
Ġatt em
Ġhel p
Ġsquad ron
n er
Ġo ld
Ġc at
Ġc ir
Ġto w
Ġ1 4
om et
Ġst ated
Ġhe ld
Ġal i
Ġ2 5
Ġv is
pt ion
Ġ201 1
Ġind ian
Ġ18 6
Ġoper ations
Ġpoint s
Ġeuro pe
g al
o int
t ado
Ġ if
Ġst r
Ġst at
ut ed
Ġpro t
pp ing
Ġsc ored
Ġrel ig
Ġaward s
Ġfur tado
Ġmark gra
emb ers
Ġrom an
Ġmarkgra f
a im
Ġ es
Ġre f
Ġe p
ol ay
Ġj u
Ġsh olay
Ġnot ed
Ġrep l
Ġrecord ed
Ġunder ground
Ġcol um
Ġpr im
Ġimp ort
Ġmar ch
Ġinv ol
Ġpartic ular
Ġgiv en
Ġcommer cial
Ġdesp ite
v el
Ġt urn
Ġw al
Ġp a
Ġl ab
Ġre qu
Ġst y
Ġne xt
ri ed
Ġall ow
ron t
Ġsong s
Ġsign ed
Ġchur ch
i qu
m s
m ed
Ġf em
Ġf ather
Ġb od
Ġm embers
Ġd ra
Ġl ate
am b
Ġv ers
ag es
Ġex t
Ġbl ue
Ġprodu ction
Ġsur v
Ġloc al
Ġsoc iety
Ġcir c
o b
Ġ ur
Ġb ase
an n
il ar
ad em
Ġse en
Ġv i
Ġac adem
ren t
ert ain
b ru
i ation
k a
o x
Ġc oll
Ġf ore
Ġf ree
at ic
en g
en ces
Ġn ight
Ġe at
Ġ1 6
ot t
Ġj ew
Ġde ath
Ġcon v
Ġk m
Ġam ong
Ġlar ge
Ġval ky
Ġmov ed
Ġreturn ed
Ġwom en
Ġprof ess
Ġtow er
c y
Ġc amp
at or
at ory
Ġp ra
Ġh ock
st em
Ġ2 1
ist er
ist ed
Ġcom ed
Ġne ver
Ġfe bru
Ġsim ilar
Ġfebru ary
d om
v es
y ing
Ġc ur
Ġc ru
Ġc ap
Ġc up
an ia
Ġn hl
Ġe qu
Ġ200 8
Ġ200 9
Ġform er
Ġsy stem
Ġdep art
Ġconsid ered
Ġauth or
l ing
v ision
Ġt ak
Ġs en
Ġw ater
Ġf t
Ġp ri
Ġl ive
Ġe ight
Ġfor ces
Ġ2 4
Ġplay ers
Ġ201 2
Ġbrit ain
Ġdiv ine
Ġconst ruction
Ġunivers ity
osaur us
Ġhock ey
e z
Ġs old
ar a
an ces
Ġh aving
Ġr ad
Ġpol ice
Ġcont ract
Ġgo als
Ġbull s
Ġeat on
a ction
n y
Ġt or
or m
Ġm as
Ġm em
Ġh un
Ġbe g
ĠĠ ĠĠĠ
Ġar sen
Ġex per
ov iet
Ġco ver
iss ion
Ġpres ident
Ġpos s
Ġvar ious
Ġpop ular
Ġreport ed
Ġvalky ria
a el
c er
c hed
e ad
p s
he st
er o
Ġs oviet
Ġp it
Ġh ouse
um m
Ġro yal
Ġex pl
Ġad m
Ġ201 4
Ġcomm on
Ġca pt
Ġhim self
Ġinter n
fer red
hip s
Ġcan ad
Ġmet al
Ġph il
Ġhist or
Ġcrit ic
Ġking dom
Ġcount ry
e c
i am
u als
y l
Ġt it
Ġs ay
re w
Ġo x
Ġc ou
Ġf if
Ġf ru
Ġm int
Ġd en
Ġh it
ic es
Ġg ir
ent h
Ġst ill
Ġst ory
Ġsu n
Ġco ach
Ġfilm s
pl oy
Ġcontin ued
Ġexcav ation
a f
Ġt ake
Ġs ent
Ġc old
Ġf ront
at s
Ġm er
Ġh ig
Ġg ra
om b
Ġwith out
Ġde al
ul ation
ist ic
Ġv oc
Ġsh ould
Ġcl ark
ark er
Ġcent ral
Ġcent ury
Ġed uc
Ġfoot ball
Ġdest roy
Ġcolum b
h a
Ġs il
Ġc ull
Ġf air
Ġb us
ar ian
Ġm ater
es tern
Ġd et
ro p
Ġst ones
iv es
iv al
iv ing
Ġcom e
se qu
Ġro ad
Ġfe w
ition s
Ġup on
Ġrecord s
Ġapp oint
Ġinst ead
Ġocc up
Ġchild ren
Ġassoci ation
Ġfly ing
Ġju ly
Ġs an
Ġs omet
Ġw ind
Ġf ern
at a
is on
Ġm en
Ġh our
ct or
Ġfor ce
ay er
Ġat tend
pl ay
Ġlead ing
Ġday s
Ġdevelop ed
Ġbeh ind
Ġfern and
h ib
k et
s p
v ing
x im
Ġ ide
Ġa ge
Ġs el
Ġs ide
Ġc iv
Ġc ut
en ced
Ġm ich
Ġh old
ic les
Ġon ce
Ġv ict
Ġch ron
ie f
Ġsc oring
Ġplay off
Ġman ag
iz e
Ġalbum s
Ġbec ome
Ġear l
Ġspec ial
Ġac ross
ens ive
Ġatt ack
Ġbat t
Ġgun s
Ġever y
Ġstr ong
Ġclark son
Ġciv il
c ing
h ing
h od
i k
in ation
Ġw ant
ed er
Ġc r
Ġc ro
Ġc aves
Ġf ire
it al
it her
ic o
Ġl ess
Ġ1 00
ith ic
iv id
Ġ19 0
Ġk ill
Ġsh ot
pe nd
ant a
Ġpol and
Ġind ivid
Ġrecord ing
Ġear th
Ġfl ight
Ġtra ining
Ġpr iv
Ġsub m
Ġwrit ten
Ġperson al
Ġcommand er
Ġstru ck
Ġactiv ities
Ġeas tern
Ġjack ets
Ġperforman ce
Ġimport ant
Ġcull en
Ġmater ial
i ent
Ġt en
er ing
Ġs umm
Ġw estern
Ġf ar
Ġf ac
Ġf ren
Ġb arker
Ġp ers
en ed
ar ies
Ġst ation
Ġst one
Ġ2 3
Ġcomp et
Ġev ent
Ġev ents
Ġinter est
Ġwrit ing
Ġsign ific
Ġii i
Ġaust ral
b y
e al
p ar
w ork
in ess
Ġc ave
Ġc reat
Ġf und
it ted
Ġp ut
Ġn ort
Ġst re
Ġde cl
Ġse x
Ġit al
Ġpro g
ber t
Ġind ust
Ġair port
ound s
Ġrel ations
Ġdisc over
Ġbas ket
Ġsuccess ful
Ġhy g
Ġmad ero
Ġtele vision
Ġsty le
Ġfem ale
Ġfren ch
c a
h am
l ine
Ġ ill
Ġb orn
Ġp ot
Ġd r
Ġl y
Ġre ached
Ġg ave
Ġst ri
ra g
iv er
Ġj ames
od rom
Ġro und
Ġun ion
og ue
Ġcl aim
Ġall osaurus
Ġplay ing
Ġoper ation
Ġcharact ers
Ġbelie ved
Ġeff ect
Ġtrad ition
Ġaer odrom
Ġarsen al
. .
i or
l ess
s ki
Ġ ident
Ġt reat
Ġs n
Ġs on
on t
Ġc le
Ġf av
it ing
Ġm aking
Ġd raft
Ġh ill
Ġto mb
im es
id ing
Ġv e
Ġsu ff
ri end
ian s
ign ed
Ġsec ret
Ġreg ular
ric t
Ġrev ol
Ġsub st
Ġsub sequ
Ġbro ad
Ġremain ed
Ġthough t
Ġdam age
Ġinstit ute
Ġcomed y
Ġcold rum
Ġfernand ez
a ff
b ar
c hes
l l
n ess
r ated
v ers
Ġs ave
Ġs ulf
Ġw ra
Ġ. ..
Ġb ur
is er
Ġl at
id ence
ut es
Ġan g
Ġcom b
Ġex amp
our n
Ġco in
Ġco ins
Ġ5 0
Ġother s
Ġfin ished
Ġreg ime
fer ence
Ġcar ol
Ġph ot
Ġtrans port
Ġcre ated
Ġbar row
Ġstart ed
Ġav iation
Ġtot al
Ġnav y
Ġmonum ent
Ġobs erv
Ġattem pt
Ġvi ol
Ġcolumb us
Ġappoint ed
Ġpriv ate
i ke
Ġa ction
re ed
Ġw ife
Ġm m
Ġd omin
Ġh or
el t
et t
Ġsh own
ain t
Ġle ast
ab ly
Ġfe et
ap s
ap er
Ġapp l
Ġarchaeolog ist
Ġimp ro
Ġnov el
Ġdec ided
Ġdevelop ment
Ġty pe
Ġperform ed
Ġpolit ical
Ġvers ion
Ġchron icles
Ġbasket ball
Ġwra pped
c om
k en
Ġa ver
Ġw ent
Ġp ie
Ġin form
Ġm ass
Ġm ix
ro s
Ġre action
Ġj ourn
Ġsh r
Ġne ed
Ġle g
Ġ201 5
Ġgo od
Ġ18 8
Ġbl ock
Ġjo ined
Ġremain s
Ġcult ural
au gh
Ġlos s
Ġestabl ished
Ġacadem y
Ġprofess ional
a pp
i ence
s hip
Ġt ur
Ġw ol
Ġf ail
at ors
Ġb all
Ġb reak
Ġd ou
Ġh on
Ġh all
Ġh ost
Ġto o
ic an
Ġg row
id ay
Ġat l
Ġv ol
and er
op s
og n
Ġrec ogn
ell ing
Ġ4 0
Ġcomp an
ough t
Ġ18 7
Ġme an
ress ed
Ġinter v
Ġac cept
Ġfollow ed
Ġdef e
Ġappe ared
end ed
Ġoffic ers
Ġdam aged
Ġpur p
Ġhol iday
Ġir on
Ġjew ish
Ġbeg in
Ġfru it
d ay
h y
m e
Ġf oc
Ġf riend
is c
Ġm o
Ġm ember
as ing
Ġh ar
Ġl ost
Ġre ad
Ġn ar
am ent
Ġst aff
ch n
Ġ2 2
Ġv ery
Ġr ich
Ġsu per
Ġar k
du ced
Ġus ing
Ġfin als
Ġform ed
Ġreg ion
Ġout side
ric k
Ġmin ute
Ġschool s
Ġins p
Ġmat ch
Ġty p
Ġheav y
Ġsev en
bo ard
Ġlim ited
Ġcommun ity
Ġintern ational
d ess
f ic
i ers
m i
m y
w ood
Ġa st
Ġw ord
Ġc m
Ġf ield
or ies
Ġd ar
Ġh ard
Ġh op
Ġl ad
Ġn omin
Ġth ak
ol ithic
om p
Ġwh ite
Ġv ill
Ġle vel
ab bar
Ġcl os
ther n
way s
Ġmin or
Ġsou thern
Ġoffic ial
Ġest im
Ġcult ure
Ġfig ure
Ġrelig ious
Ġbod y
Ġdra w
Ġur ania
Ġtak en
ny i
Ġmich ael
Ġearl ier
Ġbatt les
Ġsignific ant
b c
b on
h an
i pp
k ed
Ġt a
he t
Ġc ast
Ġc ase
Ġf ell
Ġf rag
Ġp en
is ing
Ġd av
Ġto ur
Ġl l
Ġg et
Ġe ither
st er
ch an
ut ive
Ġr ange
Ġsh oot
ort un
Ġcl osed
Ġaf f
Ġtw ent
Ġ200 3
Ġ200 4
Ġ200 5
Ġpol ic
Ġ4 4
Ġab ove
Ġcomm ission
iz ation
Ġbec om
Ġinclud e
Ġcent er
Ġsch ol
Ġso on
Ġlo ose
Ġameric a
Ġdeb ut
Ġprim ary
Ġpri or
Ġeduc ation
Ġrevol ution
d er
g as
n es
y n
Ġs aves
Ġc op
Ġb i
Ġb ra
Ġp ast
Ġm ult
Ġto ward
Ġto get
Ġst orm
id ge
Ġan im
Ġv iew
Ġcon du
rom et
Ġr ul
Ġr ank
Ġpro b
Ġcl ose
Ġ3 5
Ġab le
Ġrep ubl
Ġind e
Ġreg ard
Ġant i
Ġwork s
rough t
Ġtr ade
Ġoffic er
Ġcrit ical
Ġloc ated
Ġorigin ally
Ġiss ue
Ġserv ice
Ġsyn ag
Ġcour t
Ġpil ot
Ġinit ially
Ġdepart ment
Ġhun g
Ġgir ls
Ġsubm ar
Ġtoget her
c her
e v
i i
Ġt est
Ġs at
Ġw all
Ġf ull
Ġb rought
it ive
Ġp an
Ġin j
Ġin ch
Ġd u
ic ated
Ġre ag
Ġre se
Ġg ar
am ber
Ġu l
Ġch amp
Ġch amber
Ġr uss
Ġr iver
Ġpro cess
ain s
ain ing
ore s
Ġex ist
pp er
ab or
ish ing
Ġ3 1
ell ed
Ġint ro
Ġim age
olog y
Ġme gal
Ġev idence
Ġspec im
Ġrev eal
Ġsur round
Ġem ploy
Ġdev in
Ġgerman y
Ġdesign ed
Ġter rit
Ġann oun
Ġnat ure
Ġsuggest ed
Ġbill board
Ġcou p
Ġsil ver
Ġbus iness
Ġaustral ia
Ġhyg romet
Ġsynag ogue
Ġhygromet ric
n a
p ed
v at
Ġt aking
in ent
Ġs elf
on st
Ġf elt
Ġb omb
Ġp ick
Ġm c
Ġm ot
an a
Ġl ove
Ġg abbar
ra ck
Ġr am
Ġpl aced
se c
Ġper m
Ġ4 5
Ġte chn
Ġco ast
Ġgod dess
Ġres pect
Ġhigh way
ang u
Ġlo ok
Ġgu ard
Ġsl ayer
Ġdif fic
Ġwin ning
Ġfeat ures
Ġocc ur
Ġcomple ted
Ġge or
Ġappear ance
Ġshort ly
Ġstra pping
Ġlarg er
Ġmonum ents
Ġblack ie
ograph y
Ġtro ops
Ġinvol ved
Ġparticular ly
Ġsurv ey
Ġwol f
Ġhygrometric us
vat i
Ġdiffic ult
b r
h ar
Ġt ar
Ġa ud
Ġw at
Ġc er
Ġc red
Ġc oun
Ġf act
Ġb ru
Ġp ow
Ġm ach
Ġd ied
Ġl ack
Ġl angu
Ġn ames
Ġth ings
el ph
ad elph
Ġde ity
Ġse a
Ġwh om
ul ated
ist ics
Ġcon n
Ġcon ference
Ġch ang
ag re
Ġr it
Ġsh a
ri e
Ġ200 2
Ġser ved
ib ility
Ġ199 0
Ġwork ed
Ġfour th
Ġqu al
Ġvar gas
Ġstud io
Ġcre w
Ġfeat ure
Ġbook s
Ġmy th
Ġpar vati
Ġgre ater
Ġincre asing
Ġmod ern
Ġfif th
Ġstre et
Ġsn l
Ġjourn al
Ġbegin ning
Ġll osa
Ġrese arch
Ġchamp ions
adelph ia
b ers
l ish
m ost
n s
r ation
re st
Ġc ertain
Ġf er
Ġp al
en cy
al d
Ġd i
Ġd az
Ġl ic
Ġn ine
Ġth us
Ġe y
il le
il ities
ent ial
Ġ2 8
Ġan al
Ġv er
Ġcon d
Ġk ur
Ġk ee
Ġr u
Ġcom ment
ak es
Ġ5 00
Ġ18 5
Ġ18 9
Ġfin d
Ġme et
Ġteam s
Ġarch it
Ġchar les
Ġass ass
Ġele ph
Ġdiv ision
Ġob ject
Ġdo es
Ġstud ents
Ġeng land
Ġlit er
Ġnear ly
Ġegyptian s
Ġshow s
Ġsoc ial
Ġgreat est
Ġav ail
Ġaddition al
Ġopp ortun
Ġlarg ely
Ġprot est
Ġcamp a
Ġhig hest
Ġsomet imes
Ġsumm er
Ġindust ry
Ġsubsequ ently
Ġcarol ina
Ġark ans
Ġtwent y
Ġrepubl ic
Ġbru ins
b od
c he
e p
g es
l er
s el
z e
Ġs ac
Ġw ood
Ġc am
Ġf ight
Ġf ired
Ġf eder
Ġb h
Ġp et
Ġp red
Ġp ract
is od
Ġm v
Ġm al
Ġm ight
Ġm other
an es
as es
as ter
Ġl aw
Ġre n
Ġn on
ir al
ist ers
ag o
her n
Ġy l
Ġne olithic
ac es
Ġen s
Ġcomp ounds
Ġag reed
Ġmon t
Ġ199 4
Ġkn ow
Ġmet hod
Ġph ys
Ġinst rum
Ġele ments
Ġback ground
Ġent ire
Ġeng lish
Ġremain ing
ci ent
Ġfeat ured
Ġer a
Ġopen ing
Ġiss ued
Ġappear ances
Ġappro ach
Ġweek s
Ġfun g
Ġfig ures
Ġpil ots
Ġhelp ed
Ġep isod
Ġwind s
Ġsel ected
Ġwant ed
Ġannoun ced
Ġarchit ect
Ġcampa ign
Ġarkans as
a pt
k s
u gh
Ġthe at
Ġw id
Ġw ander
Ġf r
Ġf re
Ġf ict
Ġb ow
Ġp ark
Ġd an
Ġd ut
ic ation
ic ago
Ġre ason
Ġn ation
Ġg round
Ġg amb
Ġth ai
ol ic
st and
Ġfor ced
Ġas pect
Ġu pper
ot ed
ra y
Ġ2 9
Ġde ad
ist an
Ġch icago
th ing
Ġr if
Ġar g
Ġtw ins
Ġ200 1
Ġad am
Ġab s
Ġen v
Ġoff ice
Ġseason s
Ġform s
Ġrem ov
Ġ199 8
Ġwork ing
Ġcar bon
Ġmin utes
Ġnum bers
Ġsa w
Ġsm ith
Ġgerman s
Ġwrit er
Ġdep ic
Ġinc hes
Ġz agre
Ġstud y
Ġconst ru
Ġfran c
Ġgr ad
Ġcolle ge
Ġrepresent ed
Ġprop ag
Ġprop osed
Ġtemp le
Ġtemp les
Ġconc ern
Ġsit u
Ġmid d
Ġtre as
Ġeurope an
med i
Ġcoll abor
Ġcanad a
Ġdet ail
Ġnort hern
Ġrelations hip
Ġfav or
Ġdomin ican
Ġfoc us
Ġdav id
Ġfeder al
Ġzagre b
b and
i us
i ber
l a
o id
o pe
Ġt al
Ġa ch
on ment
Ġw ing
Ġc y
Ġc ross
Ġf a
Ġf all
Ġf its
at ure
Ġb ost
Ġp ay
is es
Ġd on
Ġre b
Ġn et
Ġwas p
Ġst ans
Ġ2 6
Ġse e
Ġch ief
Ġk ar
if y
ort s
Ġsc re
Ġear ned
Ġme x
Ġform ation
Ġthem e
Ġprodu cer
Ġsub ject
Ġgener ally
Ġbro ken
Ġdiv ided
Ġaward ed
Ġeng ine
Ġmil es
Ġdoll ars
Ġmed ia
Ġopen ed
Ġmag az
Ġpromot ed
Ġresp ons
Ġrelig ion
Ġbase ball
Ġrad io
Ġposs ible
Ġindivid uals
Ġevent ually
Ġatl anta
Ġinterv iew
Ġwander ers
Ġpropag and
Ġstans field
t he
t im
in ct
er u
Ġs ize
on se
Ġf it
Ġb en
Ġb urn
or ary
Ġp un
ar ily
Ġm ic
as ion
Ġh ur
Ġl if
Ġg i
Ġg ro
Ġg ot
Ġth reat
Ġst an
im ent
ch ing
Ġ2 7
ce ed
Ġse par
Ġcon ver
Ġcon sec
Ġpro per
Ġar r
Ġex it
Ġex cept
ate g
Ġun l
ac re
Ġte x
olog ical
Ġfin ally
Ġra af
Ġbo ard
Ġwar s
Ġmon ey
Ġ8 0
Ġcar ried
Ġret ired
rib uted
Ġarm s
Ġarm ed
Ġass ist
Ġbro ther
ific ation
Ġgu it
Ġ193 9
Ġmad ison
Ġreview s
Ġresp onse
Ġphil adelphia
Ġplayoff s
Ġmanag er
Ġprog ram
Ġaerodrom es
Ġve eru
Ġexamp le
Ġcompan y
Ġlangu age
Ġavail able
Ġenv ir
Ġmidd le
b s
d on
g ress
t t
u ck
in em
Ġs ister
Ġs isters
Ġc ab
Ġc ert
Ġb an
it ors
Ġm el
Ġd ate
ic a
Ġl ib
Ġe con
om m
im in
Ġan cient
Ġj ul
Ġse arch
Ġv en
Ġk ings
ies t
Ġne g
Ġne cess
ri pt
Ġex ec
all ed
Ġsc ul
Ġcont r
oun ts
Ġoff er
Ġ18 4
Ġover all
Ġfl ow
Ġme as
Ġant iqu
Ġthem es
Ġchar l
Ġacc ess
Ġmet res
Ġsa f
Ġele ct
Ġqu ick
Ġz r
Ġvar iety
Ġtrans ferred
Ġcre ation
Ġter m
Ġter ms
Ġplan ning
Ġfran k
Ġsupport ed
Ġpartic ip
Ġheav en
Ġhand s
ris on
Ġcontrol led
Ġinflu enced
Ġnat ural
Ġpa ul
Ġlab or
Ġallow ing
Ġmem or
Ġcapt ain
Ġgra nd
Ġkill ed
Ġly ric
Ġshr ine
Ġestim ated
Ġhung arian
Ġul tim
Ġcer em
Ġmv p
Ġach ie
Ġbost on
Ġmagaz ine
Ġconsec utive
Ġenvir onment
Ġecon om
c ent
p or
u ous
w h
Ġt ree
Ġa w
Ġc ost
Ġc ath
Ġc orn
Ġf ut
an ced
Ġd un
Ġd eter
Ġn az
Ġg ross
il is
ol e
le t
le ct
Ġst o
Ġal ways
ers e
Ġj ud
us ion
Ġv an
Ġch ap
os p
em ents
Ġk e
Ġk ra
Ġex pect
Ġun s
Ġaf ric
ac y
Ġ3 6
ell ig
Ġnew sp
Ġint ellig
Ġits elf
Ġpart s
Ġfl ower
Ġmost ly
Ġ199 6
Ġ199 9
Ġact ing
Ġ6 0
Ġend ing
Ġcons isted
Ġdep ict
Ġart ists
Ġbel ow
Ġ191 8
Ġcrit ics
Ġ192 0
Ġgovern or
Ġcontin ue
Ġmed way
Ġwill iam
Ġaust ro
Ġprov ided
Ġnav al
Ġestabl ish
Ġattem pted
Ġturn ed
Ġrequ ired
Ġvoc als
Ġfair ies
Ġital ian
Ġcondu cted
Ġinde pend
sel ves
Ġpropagand a
Ġzr nyi
a ut
b b
b al
m a
o on
t hes
Ġt on
Ġt ied
er ved
Ġs am
re al
Ġc inem
Ġf ace
Ġf ox
Ġb ank
Ġp ak
Ġp enn
al th
Ġd ro
Ġn uc
ou th
ith s
Ġj ai
Ġv ice
Ġcon cept
ter ed
os s
her s
Ġpl ans
Ġro om
Ġro bert
Ġex tend
ab ility
Ġun it
op h
Ġsc ene
ell s
Ġpol y
Ġnew ly
Ġte nd
Ġen c
Ġcomm it
ree k
Ġca used
Ġdis play
ry ing
Ġfl o
Ġpre p
ric ane
Ġthem selves
Ġ199 7
Ġact ress
Ġgen us
Ġend ed
Ġma xim
Ġarchaeolog ists
Ġatt ention
Ġsy mb
Ġhigh ly
Ġdo or
Ġ198 5
Ġ198 8
Ġent ertain
Ġlo an
Ġdisc uss
Ġmov e
emb le
Ġord ered
Ġplan ned
Ġgroup s
Ġgr ant
Ġexcav ations
Ġincre ase
Ġcour se
Ġsit es
Ġla un
Ġmonth s
Ġrepl aced
Ġwal es
Ġrequ est
Ġcur rent
Ġsold iers
Ġtor ped
Ġmas ter
Ġadm iral
Ġdestroy ed
Ġcro at
Ġsex ual
Ġtreat y
Ġsecret ary
Ġpie ce
Ġinform ation
Ġta x
Ġcop ies
Ġprob ably
Ġanal ys
Ġfung us
Ġhur ricane
Ġlyric s
Ġpak istan
Ġnuc le
Ġtorped o
c op
g a
o ice
p re
r ate
w in
z y
Ġa ot
he ast
in c
Ġw ins
Ġb ol
Ġb ir
Ġb ene
is ers
ar ing
Ġm i
Ġm ort
Ġm ount
Ġm ale
Ġd er
Ġd ed
Ġre act
Ġth om
Ġal most
ra e
et h
ig g
Ġj ap
Ġv ess
Ġk er
Ġk ind
Ġy et
Ġpl ain
Ġex eter
Ġex hib
all ow
ant i
Ġnot es
Ġper man
ous ly
Ġcomp os
Ġoff ered
ark ed
Ġca a
Ġsp ring
Ġ199 1
Ġspec ific
Ġ8 8
Ġrel ated
Ġlong acre
Ġass igned
Ġz ap
Ġbat ter
Ġ198 6
Ġ194 3
Ġmain t
Ġtru e
Ġfran ch
Ġgre w
Ġgre en
Ġalong side
Ġprev ent
Ġresult ed
Ġpur ch
Ġserv ices
Ġsyn thes
Ġbelie f
Ġwom an
Ġmor al
Ġtrack s
Ġprevious ly
Ġinit ial
Ġsol o
Ġallow ed
Ġbod ies
Ġauthor ities
Ġtit le
Ġvoc al
Ġhour s
Ġairport s
Ġcle ar
Ġsuff ered
Ġdou ble
Ġaccept ed
Ġinsp ired
Ġbattles hips
Ġbecom ing
Ġschol ars
Ġtoward s
Ġreveal ed
Ġchampions hip
Ġaspect s
Ġfranc is
Ġmex ico
Ġguit ar
Ġlib r
Ġscul pt
f act
g o
m p
p le
z her
z og
Ġ x
Ġs our
re am
Ġw ide
Ġw ides
Ġb le
Ġb ud
Ġb ah
Ġp le
Ġp aper
Ġm ac
al y
Ġd ict
Ġh us
Ġh ired
Ġto ld
Ġl ower
Ġre ferred
Ġth ink
Ġhe n
Ġfor t
Ġbe at
ur g
ur ity
Ġas ked
ut ions
Ġj er
Ġwh ose
Ġcon clud
Ġch all
Ġk ey
Ġr ather
Ġpl aces
Ġ200 0
Ġad o
Ġtim bal
Ġ4 2
Ġam un
Ġgo at
Ġgo ing
Ġspe ed
Ġdis s
te e
Ġra v
Ġfl ood
Ġbl ood
ress ion
Ġ199 5
Ġ7 6
Ġac qu
Ġcons ist
Ġsur f
Ġmar ried
Ġem er
Ġlead er
Ġqu ar
Ġ198 4
Ġent ered
Ġ194 0
Ġmark ed
Ġown ed
Ġhum ans
Ġste p
Ġstart ing
Ġlist ed
Ġer zher
Ġiss ues
Ġ195 0
Ġsev ent
Ġappro xim
Ġincre ased
Ġopp os
Ġinflu ence
Ġperforman ces
iqu e
Ġmas k
Ġvict or
Ġcompet ition
Ġlat in
Ġfail ed
Ġfrag ilis
Ġreag ents
Ġintro duced
Ġmegal iths
Ġsurround ing
Ġremov ed
Ġconstru cted
Ġtex ts
Ġcath olic
Ġcommit tee
Ġthom as
Ġfranch ise
Ġhus band
Ġtimbal and
Ġerzher zog
d en
g r
j o
k ing
l o
p g
s yl
t o
t ers
t rack
w ar
x is
Ġt ale
Ġt enn
he ad
er a
Ġs us
Ġs ky
Ġo s
Ġo ur
Ġc ateg
Ġf est
Ġb al
Ġb ass
Ġp air
en se
Ġd augh
Ġh ind
Ġh orn
Ġl et
Ġl ink
Ġre ach
Ġg all
ol k
Ġst reak
Ġas h
ot e
ra in
ers hip
Ġj e
um ent
ul ly
em s
em an
Ġpro ble
Ġar rest
Ġro les
Ġle on
ip le
Ġ3 8
Ġfe el
Ġwor ship
ap ed
Ġind ic
Ġim medi
Ġ18 0
Ġsp ent
te en
ph y
Ġ199 3
Ġ7 0
Ġmin ister
rib ution
Ġarm or
Ġ9 0
Ġbro wn
az z
Ġsing h
Ġent ran
Ġstud ies
Ġeng aged
Ġ194 4
Ġprom inent
cial ly
Ġsmall er
Ġmat ches
Ġjohn son
Ġdist inct
Ġcount y
Ġgl id
Ġstand ards
Ġinflu ences
Ġsound track
Ġmag n
Ġtre es
Ġlab el
Ġfree way
Ġpra ised
Ġsay ing
Ġhig her
Ġattend ed
Ġide a
Ġill ust
Ġclaim ed
ros cop
Ġpurp ose
Ġthak ur
Ġfell ow
Ġshoot ing
Ġregard ed
Ġinj ury
Ġassass ination
Ġfict ional
stand ing
Ġfut ure
Ġpenn syl
Ġzap ata
Ġapproxim ately
Ġpennsyl v
d in
g en
k er
l in
p read
v al
y a
Ġ ?
Ġt ons
in y
Ġs av
re g
Ġw a
Ġw re
Ġw il
Ġc as
Ġc os
Ġb ad
Ġb ay
it er
Ġp ict
is l
en es
ar ia
Ġm ust
Ġm ys
Ġd oc
Ġd ance
Ġd one
Ġd ram
Ġd iam
Ġand rew
Ġh om
Ġh app
Ġl iving
Ġre in
Ġre fer
Ġth ail
ent al
el ess
ad es
Ġst age
Ġhe alth
ir ing
ly wood
id s
Ġwith d
Ġv ir
Ġv ia
Ġch ange
os es
em ed
Ġr ang
if f
if t
Ġle v
Ġun its
ant ic
Ġ3 00
ast rum
Ġpol es
Ġint ended
Ġcomp l
Ġcomp ared
Ġdis m
Ġra in
Ġra ys
Ġcol or
Ġ7 5
Ġma x
Ġmet all
Ġimp act
Ġsur re
Ġem p
Ġsm s
Ġass emb
Ġwrit e
Ġwrit ers
Ġantim on
Ġpos itive
Ġcare y
Ġinv ited
Ġdec ision
Ġadd ed
Ġsl ow
Ġfeat uring
Ġ193 0
Ġproject s
Ġreport s
Ġfran ce
Ġsix th
Ġsupport ing
Ġrepresent ative
Ġmiss ing
Ġge astrum
Ġsev enth
Ġstru ct
Ġcharacter istics
Ġmajor ity
Ġ197 0
Ġstand ing
Ġstand ard
Ġpass ed
Ġche m
Ġes c
Ġcru iser
Ġcap ital
Ġcanad ian
Ġoccup ied
Ġcreat or
Ġdiscover y
Ġtradition al
Ġident ified
Ġleg isl
Ġfriend s
Ġpolic y
Ġey e
Ġkee p
Ġopportun ities
Ġmont real
Ġepisod e
Ġfre qu
Ġgamb ia
Ġgrad u
Ġsitu ation
Ġcontr ast
Ġintellig ence
Ġsymb ol
Ġperman ent
Ġwides pread
Ġcos m
Ġthail and
b e
c hest
d e
g s
l ight
l ls
m un
n ey
s b
s in
t i
u el
Ġt rib
Ġa im
Ġo d
Ġc ore
Ġf ix
Ġf ans
Ġb ott
Ġp us
Ġp aint
is ation
Ġm ur
Ġm akes
ing u
Ġd ub
Ġl ines
Ġn in
Ġn am
el es
Ġst ay
Ġu nd
Ġal le
Ġj azz
ow ski
um e
Ġwh ole
Ġat h
Ġch air
Ġk it
Ġk han
and ed
Ġr an
pe cially
Ġpro hib
Ġpl at
ord er
Ġwor st
Ġsc ient
Ġnew s
Ġen ough
ire ment
Ġair sp
Ġsp ores
Ġus es
ph as
Ġreg ional
Ġbo x
Ġ199 2
Ġwe ap
Ġpr int
Ġsecond ary
Ġcan cer
Ġpo or
Ġem phas
Ġsa il
Ġbet ter
Ġnor m
Ġgener ation
Ġli k
Ġart ist
Ġdirect ed
Ġdirect ly
Ġob t
Ġ191 1
Ġchrist ian
ba i
Ġown er
Ġbr idge
Ġgre g
Ġheav ily
Ġconsid er
Ġstru gg
Ġann ual
Ġassoci ated
read y
Ġadv anced
Ġes pecially
Ġexper i
Ġoccup ation
Ġmanag ement
Ġdiscover ed
Ġphot ograph
Ġspecim en
Ġterrit ory
Ġoccur red
Ġaud ience
Ġrit uals
Ġobject s
Ġyl ide
Ġcarbon aria
Ġgi ants
Ġassist ant
Ġquick ly
Ġdeter m
Ġanalys is
Ġfrancis co
Ġhusband man
Ġtenn ant
Ġairsp ace
b an
e enth
h um
i h
l or
m en
o f
s ka
t a
Ġ ic
Ġ ice
Ġt ig
Ġa ctions
er ous
Ġs out
Ġs ipp
on ed
Ġc ele
Ġf ame
Ġf olk
at ively
Ġb c
Ġb re
Ġb ran
or th
en ge
Ġm um
Ġm ention
Ġd ial
Ġto day
ic le
Ġn bc
Ġg ive
Ġth ick
il i
am a
Ġhe re
ot y
Ġal tern
Ġal ready
ch ange
um ed
Ġde ploy
us z
ist ry
th ur
Ġk im
ag ing
Ġr um
Ġr hod
Ġpro ceed
Ġy e
Ġle ar
op ol
og en
ip l
Ġall ied
ac ing
cl aim
Ġsc ott
Ġshe ll
oc r
Ġag ric
Ġair field
Ġpart y
Ġsp ot
Ġra p
Ġra re
Ġra ised
Ġme ant
Ġact ive
Ġtra in
Ġ6 00
Ġprodu ce
Ġpo pe
Ġsur p
Ġmar sh
Ġem ot
Ġ9 5
Ġele v
Ġele ment
Ġbro ok
Ġsing les
Ġbel ong
Ġ194 1
Ġoffic ially
Ġbas is
Ġ192 9
Ġexp ressed
Ġop in
Ġpop ulation
Ġins ide
Ġdem onst
Ġsqu are
Ġcomple x
Ġpat tern
Ġmiss ed
Ġgiv ing
ogra p
Ġchart s
Ġactiv ity
Ġconf eder
Ġeff ort
Ġdest ruction
Ġpromot ion
Ġtro phy
Ġprot ect
Ġext re
Ġfore st
Ġcapt ured
Ġhistor ical
Ġgir l
Ġearth st
Ġfund ing
Ġpot ential
Ġaerodrom e
Ġsubst it
Ġlat ter
Ġcomb ined
Ġobserv atory
Ġhor us
Ġmix ed
Ġgrow th
Ġnar r
Ġdar win
Ġsubmar ine
Ġsubmar ines
Ġrespect ively
Ġtar get
Ġcoun ter
Ġincreasing ly
Ġfer din
Ġcomment ed
Ġphys ical
Ġtreas ury
Ġdetail s
Ġfavor ite
Ġmemor ial
Ġultim ately
Ġcerem ony
Ġlaun ched
Ġentran ce
Ġsipp y
Ġferdin and
a ctions
c il
f all
k ins
m ates
r as
u k
v is
z co
Ġ !
Ġa k
he re
in ity
Ġw y
Ġw iz
Ġo ro
Ġo il
Ġo vers
Ġc it
Ġc and
Ġc ited
Ġf al
Ġb ab
it z
Ġp ain
Ġin n
is f
Ġm es
Ġm ol
Ġm ary
Ġm ob
al ed
ing ton
Ġd rew
Ġd ream
Ġh ot
Ġh air
Ġl eng
Ġl ayer
Ġre ar
Ġre ign
Ġre duced
Ġn ash
Ġon es
om pl
Ġst ars
ur i
id ents
iv ity
et y
um p
Ġde ep
us h
Ġy our
ort ed
ri ption
ate ur
Ġun ique
ak ed
Ġwhe ther
Ġnot ing
Ġ3 3
Ġtw ice
Ġrec re
Ġsc hed
Ġsc ript
ell er
Ġte ac
Ġab ility
Ġam ateur
Ġen em
Ġim ages
Ġca use
Ġdis p
Ġus ually
Ġmus ical
Ġfin an
Ġfin ish
Ġbo b
Ġwe e
Ġ8 6
Ġret irement
Ġma at
Ġacc omp
Ġacc ompl
aw a
Ġqu est
Ġsing er
Ġdef in
Ġdef ensive
Ġdo ing
Ġ191 4
Ġinv asion
Ġ194 2
Ġval ue
Ġtrans fer
Ġclass ic
Ġcre ate
Ġpublic ation
Ġset tle
Ġord n
Ġ192 6
Ġ193 7
Ġdesign ated
Ġbr ig
Ġdist rict
Ġcolle ction
Ġcomple t
Ġcomple te
Ġpat ron
Ġ195 4
Ġorgan ized
Ġorgan ization
Ġperform ing
ris ing
Ġmod el
Ġprov ide
Ġconc ent
Ġsal es
erv ation
Ġlos ing
Ġmuseum s
Ġpress ure
Ġland ing
Ġsw allow
Ġmag ic
Ġpresent ed
Ġ186 1
Ġref used
Ġref lect
Ġrepl ace
Ġcover ed
Ġsay s
Ġvict ory
Ġflight s
Ġfar m
Ġital y
Ġtomb s
Ġloss es
Ġpurp oses
Ġtyp ically
Ġast rae
Ġword s
Ġthak sin
Ġrank ed
Ġpan el
Ġgeor ge
Ġeleph anta
Ġliter ature
Ġconcern ed
Ġscre en
Ġnecess ary
Ġenvironment al
Ġnaz i
Ġke pt
Ġnewsp aper
Ġflo or
Ġprep ared
Ġtax on
Ġnucle ar
Ġconclud ed
Ġimmedi ately
roscop ic
Ġdoc ument
Ġsurre nder
Ġbott om
Ġmum bai
Ġwiz ards
Ġoro zco
Ġleng th
Ġaccomp an
a ud
a rent
b ack
c ru
g er
h ist
i pped
m on
o ch
r ies
r ant
w ing
z a
Ġt v
Ġa le
in i
in o
in ated
Ġs aint
Ġs elling
Ġo m
Ġc ens
Ġc roy
nd s
Ġf res
Ġf ully
at ch
Ġb a
Ġp ist
Ġin ner
Ġm ir
Ġm ut
Ġm art
Ġd ail
Ġd rum
Ġd read
Ġh a
ro ad
Ġl ot
Ġl ay
Ġre form
Ġg reek
Ġth r
st in
le ment
le ts
Ġfor ward
ot he
ra ged
Ġan th
Ġj ar
Ġse as
Ġse ctor
Ġse mi
Ġis is
Ġsh are
Ġcom ing
Ġsu nd
Ġle aving
ill ery
ab led
ak er
Ġnot e
Ġ3 9
Ġfe ast
Ġher self
Ġsc he
Ġsc ore
Ġ4 00
Ġcont emp
Ġ201 6
Ġco ol
Ġspe ct
Ġsp ir
Ġsp read
te nder
iz ations
ph ic
Ġser ious
Ġme ans
Ġpre c
Ġpre par
Ġreg ul
Ġinclud es
Ġno ise
Ġjo int
Ġrel ief
Ġapp arent
Ġem b
Ġhigh light
Ġwhere as
Ġele ctions
Ġart illery
Ġed ition
Ġmark et
Ġval id
Ġclass es
Ġrece ption
Ġnear by
Ġgr am
Ġcolle ct
Ġgl ob
Ġpat t
Ġpur s
Ġel imin
Ġsk ull
Ġfun er
Ġlarg est
Ġbattle cru
Ġpass ing
Ġdel iv
Ġgoal tender
sh ire
Ġtele com
Ġjack son
Ġinstit utions
Ġobs erved
Ġlow e
Ġ196 1
Ġequ ip
Ġtak es
Ġtit led
Ġsomet hing
Ġindivid ual
Ġstation ed
ca pe
Ġstri ke
Ġsulf ide
Ġexamp les
Ġappl ied
Ġaver age
Ġdefe at
Ġrich ard
Ġtyp es
Ġvill age
het ic
Ġpen al
Ġcommission ed
Ġmult iple
Ġspecim ens
Ġperm itted
Ġconn ect
rie f
Ġkur stin
Ġinstrum ents
Ġcy cl
Ġwars aw
Ġcab ral
Ġjul ian
Ġparticip ated
Ġeconom ic
Ġexpect ed
Ġestablish ment
Ġded icated
Ġdict ator
Ġhen ry
Ġflood ing
Ġsurf ace
Ġquar ter
Ġdaugh ter
Ġje ff
Ġpennsylv ania
Ġdram a
Ġrein for
Ġchair man
Ġrhod e
Ġagric ult
Ġcit iz
Ġcand id
Ġteac hers
Ġordn ance
Ġastrae us
Ġcroy don
Ġdail y
a ur
a ult
a ired
a pted
b or
b es
b reak
c el
c le
d s
g ing
h i
h aps
j a
o h
o en
o ba
r or
s ky
t ies
v ement
Ġt em
Ġt un
Ġt ess
Ġt ell
Ġt ade
Ġa z
in du
Ġs ought
on ium
Ġw r
Ġw ound
Ġo st
Ġc e
Ġc ust
nd ing
Ġf red
Ġf aced
at us
at ives
Ġb ond
Ġb one
it a
it ation
it able
Ġp eter
Ġp pg
Ġin h
Ġm and
Ġm ason
Ġm outh
al es
Ġd ah
Ġh ip
Ġh ous
Ġh ang
Ġh indu
Ġto uring
ic z
Ġl ou
Ġl ie
Ġre du
Ġre ally
ol ia
ad ed
om y
Ġst ib
Ġst ating
ot a
ot te
id a
ra b
et ic
Ġde g
Ġde emed
Ġse g
Ġv on
Ġch ris
ver t
Ġsh ore
Ġar rang
Ġpl ot
Ġro d
ri al
Ġor land
Ġle ave
Ġle gal
ab it
Ġare as
Ġcl ock
Ġ3 7
Ġper haps
Ġad apted
Ġ4 8
Ġam b
Ġam end
Ġen l
Ġag ency
Ġoff s
ff ic
Ġsp ore
Ġsp orts
Ġfl int
Ġpre m
Ġact s
Ġact ually
Ġtra vel
Ġac id
Ġsecond s
Ġph oen
Ġmar ia
Ġlong er
Ġass ists
Ġpe ace
Ġsupp l
Ġdef end
air s
Ġ191 3
Ġ191 5
Ġgu est
Ġdesc ription
Ġgold en
Ġpublic ations
Ġbas ic
Ġport ug
Ġport ico
Ġreturn ing
Ġconst it
rol ight
ĠĠĠĠ ĠĠ
Ġbr ing
Ġpar ish
Ġfle t
Ġthir ty
Ġpat rick
Ġserv ing
Ġstra ight
Ġmor ning
Ġsal ary
Ġcal iber
Ġadv ance
Ġrest rict
Ġbill ion
Ġbeh av
Ġdeb uted
Ġvis ited
Ġprim arily
Ġinvol ving
Ġext ra
Ġacadem ic
Ġfore ign
Ġsen se
Ġmem ory
Ġexper ience
Ġhistor ic
Ġide as
Ġnort heast
Ġdecl ared
Ġprog ress
Ġsuccessful ly
Ġeffect s
Ġang eles
Ġviol ence
Ġimpro ved
Ġpie ces
Ġhost ed
Ġmean ing
Ġfruit bod
Ġruss ian
Ġcred ited
Ġpow ered
Ġchang ed
Ġqual ity
Ġcond ition
Ġeleph ant
Ġcam era
Ġdan iel
Ġdepic ted
Ġdepic ts
Ġmic rolight
Ġthreat ened
Ġstan ley
Ġconver ted
Ġproper ty
Ġarr ived
Ġ184 9
Ġcharl otte
Ġsaf ety
Ġchap el
Ġafric a
Ġindepend ent
Ġextend ed
Ġenc ou
Ġcroat ia
Ġbir th
Ġjap an
Ġsynthes is
Ġlibr ary
Ġmask ray
Ġmagn olia
Ġdiam eter
Ġemp ire
Ġlik ely
Ġexperi enced
Ġairfield s
Ġnarr ative
Ġcontemp orary
Ġpatt erson
Ġequip ment
Ġtade usz
Ġorland o
Ġphoen ix
c ast
c ock
e g
g l
h old
i ate
m er
m es
o ard
o ys
r d
r ical
t ar
u ing
w all
Ġ iv
Ġ ess
Ġ ign
Ġt rou
in ist
Ġs and
Ġs ort
Ġs ri
on ents
re c
re ts
Ġc ard
Ġf at
Ġf ing
Ġf ill
Ġb ul
Ġb ang
Ġb rief
or por
Ġp eng
Ġp igg
Ġm cc
Ġd or
Ġd ry
Ġd ata
ro x
Ġto m
Ġl ives
Ġre pe
Ġn ick
Ġth ous
ent ed
el ly
Ġwas hing
Ġst ren
Ġhe rit
Ġhe ight
im er
ur ti
ot es
et te
Ġan up
Ġj am
Ġde pend
Ġse qu
Ġse ction
Ġse ek
ul a
us ing
Ġcon gress
Ġch a
ag n
Ġr ud
Ġsh ared
Ġsh aped
Ġpro ved
est y
if est
ri an
ri age
Ġor b
pt on
Ġun us
ess ion
ak en
qu e
ru ct
ant ly
ud e
ip s
Ġ3 2
Ġfe ar
cl us
Ġsc ale
Ġsc ope
Ġsc enes
Ġshe lls
oc ated
Ġad ult
Ġad apt
Ġ4 1
Ġ4 7
Ġcont aining
Ġab and
Ġman e
Ġman aged
Ġman ifest
Ġam ount
oun ted
Ġim per
ok ed
Ġ5 2
Ġ5 4
Ġpart ly
Ġres emb
Ġfin ishing
Ġsec urity
Ġover t
Ġunder ne
Ġme h
Ġpre mi
Ġant on
Ġrem ix
Ġbo y
Ġcol on
Ġac claim
Ġjo b
ony m
Ġmin istry
Ġthere fore
Ġph ara
Ġem my
Ġmusic ian
Ġsupp ly
led ge
Ġ198 7
Ġ191 0
Ġremain der
Ġinv est
Ġsl ight
Ġmov ement
Ġwin ner
Ġmain ly
Ġloc ation
Ġset t
Ġport ra
Ġcall ing
Ġste ve
Ġpost ed
Ġdem ons
Ġhy d
Ġgreat ly
Ġresult s
Ġgl ass
Ġgl iding
Ġmiss ion
Ġmiss ions
Ġ195 2
Ġ197 5
Ġsk et
Ġsk ill
Ġfun ction
Ġway s
Ġtrad ed
Ġlight ning
Ġright s
Ġtri p
Ġdel ay
Ġeas a
Ġ186 2
Ġstat ute
Ġimport ance
Ġext ensive
Ġnever the
Ġcru isers
Ġauthor ity
Ġden omin
ival ent
Ġfac ilities
Ġcreat ing
Ġdecl ined
Ġbur ied
Ġobserv ations
Ġtur rets
Ġrecogn ized
Ġmean wh
Ġnomin ated
Ġnomin ations
Ġofficial s
Ġbecom es
Ġanim al
Ġemploy ed
Ġbomb ard
Ġconn ected
Ġsha pe
Ġjournal ists
Ġpal in
Ġlic ens
Ġcond itions
Ġwid ely
Ġdut ch
Ġabs ence
Ġnet work
Ġrespons ible
Ġsepar ate
Ġunl ike
Ġentertain ment
Ġbene f
Ġmort imer
Ġvess els
Ġsculpt ure
Ġado pted
Ġsevent eenth
Ġvictor ia
Ġfest ival
Ġarrest ed
Ġpict ure
Ġmys ore
Ġlev els
Ġmur der
Ġath let
Ġearthst ar
Ġfinan cial
Ġdread n
Ġpenal ty
Ġtess a
Ġflet cher
Ġpeng u
Ġpigg ott
Ġthous and
Ġwashing ton
Ġstren g
Ġherit age
Ġunderne ath
Ġneverthe less
Ġmeanwh ile
b ed
c est
d ing
g ia
h aw
i as
i os
i ated
k an
k ov
n el
s k
t v
u ff
w ide
w ise
w orth
Ġthe ater
er g
er ted
Ġs ar
Ġs ir
Ġs ons
Ġw is
Ġw ad
Ġw ear
Ġc art
Ġc row
Ġb on
Ġb ach
Ġb ones
it or
Ġp ac
is ions
Ġm is
Ġm ph
Ġm ound
es e
an c
as c
as ka
Ġd v
Ġd ies
Ġd ru
Ġd har
Ġh am
Ġh osp
Ġto urn
Ġl u
Ġl og
Ġl ane
Ġre nd
Ġre ject
Ġn ative
Ġg h
Ġg ulf
Ġe th
il ing
el ect
st on
Ġst al
Ġst ore
Ġas ian
ir is
ir ation
ut ing
ay kov
Ġan ch
Ġan ne
Ġj on
Ġj ac
Ġv ic
Ġv aud
Ġcon ne
Ġch amb
Ġch ann
Ġch aykov
Ġk o
Ġk ent
Ġk ras
Ġr iding
Ġr hy
Ġsh ut
Ġpro s
Ġne ck
if ying
se y
Ġro b
Ġro ugh
un g
Ġor n
Ġle ct
ill ance
art s
igh ter
op y
ru ption
ant ry
Ġtw in
Ġrec ent
Ġrec over
Ġrec omm
Ġwor th
ap ers
Ġper cent
Ġad vert
Ġcont ent
Ġrep aired
Ġcomp osed
Ġag gress
Ġfilm m
Ġfilm ed
Ġsp ort
Ġup d
Ġear n
Ġfl ank
Ġout standing
Ġbo ys
Ġact ors
Ġtra ffic
Ġ6 4
Ġchar ge
Ġcar ter
Ġcar ved
Ġbu ck
Ġ7 7
Ġpr ison
Ġacc used
Ġarm ored
Ġatt ract
Ġmar riage
ick s
ock ed
Ġ9 4
Ġmusic ians
Ġass umed
Ġdep os
Ġinc orpor
Ġbro ke
Ġqu een
Ġdirect ors
ific ations
Ġlo yal
Ġprom isc
Ġval ley
ve illance
Ġtru st
Ġ192 3
Ġ192 5
Ġ193 1
Ġexp ed
ank a
Ġste am
Ġcontin ues
Ġstar red
Ġsim p
Ġrepres ents
Ġany thing
Ġfam ous
Ġdist ingu
Ġwill ing
Ġcolle cted
Ġvide os
Ġorgan izations
Ġconf ir
Ġmor rison
Ġpass eng
Ġlast ed
Ġche st
Ġcor ps
ink ing
con t
Ġpa id
Ġsty les
Ġcirc le
ann ah
Ġsimilar ly
Ġequ ivalent
Ġadm inist
Ġhistor ian
Ġcritic ism
Ġsel ect
Ġhold s
Ġhold ing
Ġcro wn
Ġrelations hips
Ġsubsequ ent
Ġattempt s
Ġshr ines
Ġsignificant ly
Ġget ting
Ġschol ar
Ġdu o
Ġexist ing
Ġexist ence
Ġtechn ical
Ġgoddess es
Ġlook ing
Ġguard ian
Ġmach ine
Ġchang es
Ġlic ence
Ġru le
Ġmeet ing
Ġfight ing
Ġpract ices
Ġknow ledge
Ġreason s
Ġkar l
Ġachie ved
Ġaw a
Ġcorn wall
Ġdepict ing
Ġcinem a
Ġbol lywood
Ġbatter ies
Ġpurch ased
Ġsour ce
Ġjer zy
Ġconsist ing
Ġos iris
Ġproble ms
Ġleon ard
Ġsav annah
Ġwre ck
Ġhom es
Ġwithd ra
Ġrang ers
Ġcore y
Ġfix ed
Ġnam eless
Ġobt ained
Ġcele br
Ġmention ed
Ġrap id
Ġopin ion
Ġconfeder ate
Ġsettle ment
Ġgram my
Ġreinfor ce
Ġcust om
Ġfruitbod ies
Ġunus ual
Ġinvest ig
Ġpengu ins
Ġbach chan
Ġdhar m
Ġhosp ital
Ġvaud ev
Ġchaykov sky
c an
d ney
g ar
g ated
g ery
h ood
j oy
k h
k n
l ock
m ond
p ir
p ond
t ic
u x
u it
u le
u fact
v ille
w e
w rit
w ick
x ed
Ġt ort
Ġt able
Ġt rick
Ġa rab
er ate
er ick
Ġs ell
Ġs ele
Ġs oph
Ġw it
Ġo ak
Ġc u
Ġc ub
Ġf ate
Ġf ab
at t
Ġb rist
it an
or us
Ġp ack
en a
en ing
Ġm ess
Ġm ine
Ġm ike
es co
Ġd ark
Ġd ating
Ġh ay
Ġh art
Ġh ier
Ġre ct
Ġn a
Ġn ut
Ġn ha
Ġg ard
Ġg ust
Ġg ang
Ġg ather
Ġth row
Ġe ag
il s
ol ved
om ing
Ġst able
Ġhe art
Ġbe aut
ur b
ur ies
Ġu t
et on
ut en
ce nd
Ġan con
Ġj im
Ġj ose
um es
Ġse ated
Ġat en
ul ate
Ġv ai
Ġv oted
Ġv oice
Ġis ol
Ġch ance
Ġch ina
Ġch oice
th i
os elect
Ġk a
Ġk en
Ġk al
ag ues
Ġr on
Ġr ate
Ġr ick
Ġsh o
Ġsh ots
Ġpro te
Ġy og
res pond
Ġex clus
art ers
igh th
Ġun kn
Ġun esco
ian o
Ġnot able
Ġall ies
ast ic
Ġrec ently
Ġrec alled
cl es
Ġsc or
Ġ4 3
Ġcont ain
Ġcont act
Ġint ention
Ġman ufact
out ing
Ġen anti
Ġind icated
Ġag re
Ġag ust
Ġ5 1
Ġpart ial
Ġspe aking
Ġdis abled
Ġsp an
Ġsp ons
te enth
Ġres ign
Ġres igned
olog ies
Ġunder w
Ġra f
Ġfl or
Ġme chan
Ġpre ced
Ġreg ulation
Ġrem arked
Ġthem ed
ward s
ress ing
Ġact or
Ġgame play
Ġinter action
Ġwe bs
Ġrele ases
Ġ8 00
Ġkn ew
Ġprodu cing
Ġmin im
Ġmin nes
Ġma h
Ġpo e
Ġacc ount
Ġatt ributed
Ġsur gery
Ġinst ance
Ġsm o
Ġpres ence
Ġsever e
Ġdep rec
Ġtr im
Ġele ction
Ġz one
Ġdef ence
Ġappe al
Ġvar i
Ġart icle
Ġ198 0
Ġnorth w
Ġ191 7
Ġ191 9
Ġmov ie
Ġwin ter
Ġset ting
Ġfound ed
Ġfound ation
Ġexp anded
ier z
Ġplan et
ues e
Ġbuild ings
Ġocc as
Ġfam il
Ġdist ribution
Ġresult ing
Ġperson nel
Ġdid n
Ġpower ful
Ġcommand ing
Ġrepresent ing
Ġaddition ally
Ġorgan ised
Ġel se
Ġprop os
Ġunivers e
Ġ197 3
Ġappear ing
Ġsk in
uss ion
Ġtri als
Ġconc ert
Ġcor respond
Ġland s
Ġsuggest s
Ġsuggest ing
Ġresp ond
Ġold er
Ġvis ual
Ġstat istics
Ġturn s
Ġcirc um
ox ide
Ġconv ers
Ġprofess ion
Ġcap able
Ġsen ators
Ġtor ont
Ġsoviet s
Ġcritic ised
Ġtit les
Ġden ied
Ġdestroy ers
Ġsan ford
Ġattack s
Ġevery thing
Ġcr ime
Ġindust rial
Ġaver aged
Ġblock ade
Ġhon or
Ġdefe nder
Ġnar row
Ġhop ed
Ġclos ely
Ġbra nd
Ġanim als
Ġterrit ories
onst ruction
Ġcoun cil
Ġmyth s
Ġdi agn
Ġopportun ity
Ġsac red
Ġren amed
Ġrif le
Ġrif les
Ġcollabor ation
Ġcert ified
Ġmel od
Ġmeas ure
Ġkra k
Ġton nes
Ġmaxim um
Ġreact or
Ġbud get
Ġemer ged
Ġreach ing
Ġrain fall
Ġchem ical
Ġnin th
Ġweap ons
Ġic on
Ġrum ors
Ġproceed ed
Ġrare ly
Ġextre me
Ġsche er
Ġcitiz ens
Ġcandid ate
Ġfred erick
Ġmand atory
Ġlie uten
Ġportug uese
Ġfing al
Ġimper ial
Ġphara oh
Ġdenomin ation
Ġreject ed
Ġchann el
Ġkras nyi
Ġupd ate
Ġpromisc uous
Ġbrist ol
Ġancon a
Ġminnes ota
Ġtoront o
1 8
b led
b ee
e f
e per
f r
f an
f ire
f are
g in
j i
j ee
k es
k ok
l im
m ore
m und
p r
t ra
w is
w ell
y er
Ġ ire
Ġt as
Ġa a
Ġa id
Ġa xis
in um
in sey
er gy
er ve
Ġs ad
Ġs ars
re l
Ġo ly
Ġo ption
Ġo tt
Ġc av
Ġc res
Ġc iting
Ġc ns
Ġb er
Ġb or
Ġb ig
Ġb ron
Ġb bc
or a
or ter
Ġp ound
Ġp ath
ar n
Ġm ck
Ġm un
Ġm ap
Ġm ile
Ġm ounts
Ġd ele
Ġd yn
Ġh ann
ro vers
ic ide
ic ations
ic ted
Ġl es
Ġl ing
Ġl ived
Ġl uc
Ġre ver
Ġth ing
st ation
st ained
Ġst im
Ġst op
Ġst rict
Ġhe ro
Ġfor ty
ur st
Ġas ide
ot ic
Ġal one
id ation
ra p
et ts
ut h
ut s
ow a
um ar
um ber
Ġde ck
Ġse at
ul s
us etts
Ġv ac
Ġv atic
Ġit ems
ter y
av k
Ġk umar
Ġr id
Ġr ub
Ġr ise
Ġr ival
her ry
Ġcom es
Ġsu stained
ain e
Ġar ts
Ġar ih
Ġne br
Ġro se
Ġro ots
Ġex am
Ġle wis
ill er
Ġun able
og ie
ov il
Ġrec ru
cl ad
cl usion
Ġper c
Ġad j
Ġcont rovers
out s
Ġam y
Ġam id
Ġam mun
Ġcomp ar
Ġag ent
Ġoff ensive
Ġim m
ok e
ok es
Ġ5 6
Ġ5 7
Ġca pe
ach usetts
Ġsp l
Ġres c
Ġres ist
olog ist
Ġunder t
Ġfl at
Ġfl ag
Ġap art
Ġser ve
Ġpre hist
Ġreg ions
Ġreg iment
Ġout break
Ġev ans
Ġrem ember
Ġbo ats
Ġbo ogie
Ġmon itors
Ġinter pre
Ġtra v
Ġ6 2
Ġcar ving
Ġcar rying
Ġkn ots
Ġend s
Ġ7 1
Ġ7 9
Ġjo e
Ġsome wh
Ġpr ime
Ġpr inc
Ġrev ers
Ġrel atively
Ġsub s
Ġsub cont
Ġcons ists
Ġcent re
Ġnum erous
Ġimp lement
Ġsur veillance
Ġ9 2
Ġlong est
Ġass ault
Ġpe aked
Ġtr insey
Ġinc omp
Ġli ber
Ġz ilt
Ġdef ens
end ra
Ġob st
Ġent ry
Ġstud ent
Ġeng ra
Ġed mund
Ġgu id
Ġdec ade
Ġdec ades
Ġmov ing
pect ive
Ġ192 4
Ġinf antry
Ġ193 6
Ġ193 8
Ġexp os
ism o
Ġste fan
Ġbr ut
Ġbar ra
Ġmat ter
Ġhead s
Ġhead qu
Ġdem and
Ġdist ance
Ġcount ries
Ġdiffer ences
Ġge opy
Ġserv es
Ġel b
Ġ197 6
Ġeven ing
Ġconf ront
Ġeff orts
Ġstra chan
Ġposition s
Ġsal v
Ġrun s
Ġcor por
Ġaer ial
Ġla id
Ġinstit ution
Ġir reg
Ġlim it
Ġpolit ic
Ġpolit ics
Ġtro p
Ġ196 0
Ġcommun ities
Ġcat aly
Ġvis itors
Ġdra wn
Ġnight s
Ġconv in
Ġpri ze
Ġpit cher
Ġexpl ained
Ġox ford
Ġfif a
Ġeduc ational
Ġfair y
Ġcome back
Ġpers u
Ġinterest ed
Ġaustral ian
work s
Ġson thi
Ġsuff ering
Ġbroad way
Ġbroad cast
Ġbur ial
Ġviol ent
aps ed
Ġappl ication
Ġaver aging
Ġmass achusetts
Ġvol ume
Ġrecogn ised
Ġiron clad
Ġrich mond
Ġnomin ation
Ġbattles hip
Ġrul es
Ġreag ent
Ġruss ia
Ġintro du
Ġmegal ithic
Ġpick ed
Ġcoast al
Ġgeor gia
Ġdifficult y
Ġpow ers
Ġprotest s
Ġsac r
Ġpract ice
anes e
Ġens emble
Ġarchitect ural
Ġtheat ers
Ġfr ame
Ġarg ued
Ġabs or
Ġcollabor ated
Ġfa ith
Ġburn ed
Ġbrother s
Ġneg ot
Ġexec uted
Ġexec utive
Ġantiqu aries
Ġlabor atory
Ġafric an
Ġbatter y
Ġbah t
Ġrav ana
Ġacqu ired
Ġoppos ite
Ġlet ter
Ġglid er
Ġglid ers
Ġmetall ic
Ġassemb led
Ġfrequ ently
Ġgradu ated
Ġod or
Ġtig ers
Ġye ovil
ograp her
Ġrecre ational
Ġsched ul
Ġenem y
Ġquest ion
Ġdefin ition
Ġcomplet ely
Ġreplace ment
Ġale x
Ġglob e
Ġdah l
Ġlou is
Ġdeg ree
Ġarrang ed
Ġenl isted
Ġbang kok
Ġmane ater
Ġslight ly
Ġbombard ment
Ġbenef it
Ġpac ific
Ġchamb ers
Ġpros pect
Ġsimp ly
Ġcornwall is
Ġdharm endra
Ġvaudev ille
Ġunkn own
Ġflor ida
Ġwebs ite
Ġsmo oth
Ġtrim urti
Ġfamil ies
Ġlieuten ant
Ġoly mp
Ġmck ay
Ġarih ant
Ġnebr aska
Ġammun ition
Ġsomewh at
Ġsubcont inent
Ġzilt oid
Ġgeopy xis
Ġirreg ular
a way
b ra
c ers
e ch
i ot
j e
l av
l ines
m in
m ing
m outh
n u
p ass
r id
r us
r ations
r idge
t ig
u j
u able
v ara
v ements
w ich
z ew
Ġ id
Ġ ere
Ġt et
Ġt ip
he l
he red
in ary
in ations
in cess
er ia
Ġs om
Ġo h
Ġo ce
Ġo ri
Ġc ov
Ġc ases
Ġc ells
Ġc oty
Ġf ou
Ġf ought
Ġf uel
Ġb ed
Ġb it
Ġb ound
Ġb order
it as
it ated
it led
or ic
Ġp or
Ġp ill
Ġp ett
Ġp uck
is aw
en ess
ar thur
Ġm all
al a
Ġd a
Ġd im
Ġd ig
Ġd ated
Ġd ust
Ġd ang
Ġh u
Ġh its
Ġh und
Ġto ol
ic herry
Ġl em
Ġre ference
Ġre actions
Ġg as
Ġg ained
ou d
Ġe ld
Ġe ighth
ent ially
st ed
st it
st ances
le cted
ad ing
om ical
Ġhe ard
im ierz
Ġbe ach
Ġbe ings
Ġas i
ir t
Ġu cl
ot ro
ot hes
ch t
ig a
ut y
ut er
ut ional
Ġj ason
Ġse ems
Ġwh it
Ġv ish
Ġch ose
th m
Ġk g
Ġk on
Ġk ore
Ġk ick
Ġk ail
Ġk ev
Ġk avk
Ġr at
Ġr ing
Ġr ural
Ġr ca
Ġsh in
Ġsh op
Ġsu icide
Ġpro c
Ġy ell
if ul
if ice
Ġro ok
un k
Ġex change
ill ing
ab h
Ġun p
Ġun con
ud a
og ues
Ġcl im
ac o
cl osed
Ġsc r
Ġsc ot
ign ment
Ġplay station
Ġ4 9
Ġte xt
Ġcont rib
Ġcont ains
Ġcont ributed
Ġab ilities
Ġab road
Ġint ens
Ġam az
Ġen joy
Ġcomm od
Ġco al
Ġind u
Ġag round
Ġ5 3
Ġpart ially
Ġdis app
Ġdis order
Ġra il
Ġra ce
Ġfl ame
Ġform at
Ġform ally
Ġreg ist
Ġbl ues
Ġout er
Ġrem ark
ke nd
Ġinter p
Ġtra ined
ors hip
Ġ8 4
Ġbu y
Ġkn icks
Ġfour teen
Ġ7 00
Ġpr ies
Ġpr incess
Ġcons ervation
Ġcons pir
oth y
Ġcent uries
land s
Ġ9 1
Ġ9 7
iss ed
Ġsou l
Ġfollow s
Ġsever ely
ys ki
Ġdep th
Ġdep uty
Ġlead s
Ġdire ction
Ġsign ing
Ġworld wide
Ġdef ense
Ġvar iation
Ġdiv in
Ġdiv erse
Ġ198 2
Ġent er
Ġ191 2
Ġ191 6
Ġ194 5
Ġ194 8
Ġ194 9
Ġval uable
Ġdisc ip
Ġrece iving
Ġown ers
Ġbas ement
Ġport s
Ġport ion
Ġ192 8
ah a
Ġcontin ental
Ġdevelop ing
Ġdescrib ing
Ġins pect
Ġhead ed
Ġdem ol
Ġdem ocr
Ġsuccess or
Ġgr ade
Ġcolle ctions
hl er
Ġgiv es
Ġunivers al
Ġunivers ities
Ġrom antic
Ġfoot age
Ġann ular
Ġbelie ve
Ġ197 2
ee p
Ġsk el
Ġconf isc
Ġopp onents
Ġmod erate
co pe
Ġperiod s
Ġtri ed
arch y
Ġyou th
bo oba
Ġdel iber
ane ously
Ġband s
Ġsb f
Ġsol id
Ġstat us
Ġep ox
Ġinvol vement
Ġwal k
Ġrequ ire
Ġsurv ived
Ġsurv iving
Ġcirc ulation
Ġur ban
Ġcoll apsed
Ġjew el
Ġcamp s
Ġsystem s
Ġdepart ed
Ġsen ior
Ġbeg ins
Ġarsen ic
Ġexper iment
Ġox ide
Ġcou l
Ġcoach ing
Ġearl iest
Ġattack ed
Ġ190 8
Ġsignific ance
Ġsulf ur
Ġang er
Ġcomb inations
Ġbarrow s
Ġneed ed
Ġ188 9
Ġtur k
Ġgrow ing
Ġatl antic
Ġrecogn ition
Ġdefe ated
hy d
Ġinsp iration
Ġast ron
Ġvill a
Ġclos er
Ġestim ates
Ġcast le
Ġpen et
Ġaff ected
Ġbi ography
Ġview s
Ġcondu ct
Ġrul ed
Ġregard ing
Ġsat isf
Ġinj ured
Ġsurround ed
Ġperm ission
Ġmach ismo
Ġassass ins
Ġwood en
ugh t
Ġtheat rical
Ġbow man
Ġdead line
Ġadam s
Ġconcern s
Ġrespons ibility
Ġgro wn
Ġban ned
Ġsearch ing
Ġoffer ings
Ġelect ric
Ġaw are
Ġgrant ed
Ġrequest ed
Ġsexual ity
Ġvess el
Ġmaint ained
Ġpurch ase
Ġbelief s
Ġmoral itas
Ġmac arthur
Ġchall eng
Ġstep hen
Ġcateg ory
Ġhind i
Ġash bee
Ġfeel ing
Ġillust rated
Ġcas em
Ġcas ual
Ġhapp ened
Ġstruct ure
Ġstruct ures
Ġlegisl ation
Ġalle g
Ġprohib ited
Ġplat inum
Ġnorm al
Ġphotograph s
Ġsout he
Ġhere ford
Ġdemonst rated
Ġbab y
Ġwee kend
Ġbrig ade
Ġfres h
Ġmart in
Ġanth rop
Ġjar vis
Ġpurs ue
Ġelimin ated
aur us
Ġtem per
Ġtell icherry
Ġwr ong
Ġwound ed
Ġbehav i
Ġess ential
Ġdor othy
Ġrepe ated
Ġanup ong
Ġcha os
Ġadapt ation
Ġaband oned
Ġmeh booba
Ġskill s
Ġstreng th
Ġcrow d
Ġdv d
Ġtourn ament
Ġgh ost
Ġanne xed
Ġjac qu
Ġrough ly
Ġflank ed
Ġexped ition
Ġgard en
Ġprote ction
Ġscor er
Ġunderw ent
Ġpoe hler
Ġcircum stances
Ġkrak w
Ġling a
Ġresist ance
Ġliber ty
Ġbrut al
Ġtrop ical
Ġschedul ed
Ġoce an
Ġhund red
Ġvish nu
Ġkail ash
Ġkavk az
Ġyell ow
Ġrook ie
8 0
b en
b ur
b ury
e cess
e aster
f l
f ir
f ers
f ort
f ect
g reg
h urst
i ud
m at
m id
n ers
n all
o om
p an
p ent
p ri
r ich
r ates
r ised
u ccess
y an
z es
Ġ ig
Ġ eric
Ġt um
Ġt ide
Ġt ub
Ġt act
Ġt one
Ġt iss
Ġt ail
Ġt augh
he rent
in z
er ation
Ġs z
Ġs le
Ġs ab
Ġs ak
Ġs ie
Ġs ides
re y
re ct
Ġw ed
Ġw ild
Ġw ick
Ġc ra
Ġc ities
Ġc ards
Ġc reek
Ġc iud
Ġf an
Ġf old
Ġf reed
Ġf asc
Ġb ce
Ġb ought
it es
it ude
it abh
or ated
or ian
or arily
Ġp ant
Ġp ric
Ġp ier
Ġin ning
ar i
ar p
Ġm l
Ġm it
Ġm om
Ġm os
Ġm aps
Ġm ounted
al ised
as y
Ġd h
Ġd aco
Ġh ud
Ġh ath
Ġh ull
Ġh abit
ro it
ro se
ic ed
Ġl od
Ġl ord
Ġl ov
Ġl ock
Ġl ighter
Ġre ne
Ġn ations
Ġn ile
Ġg le
Ġg ift
Ġth in
Ġth read
il es
il ized
ol ph
el ine
le te
ad ic
ad uri
Ġwas n
am ents
Ġon to
om a
om s
Ġst u
Ġst ony
Ġst ring
Ġst hetic
Ġfor th
Ġbe ar
Ġbe am
ly ing
ot ion
ch ar
ch cock
iv als
ers ey
Ġan cest
Ġj ay
Ġj ones
Ġj ersey
um n
Ġse ct
us ic
Ġv eter
ter ial
Ġch o
Ġch al
Ġch os
em ark
Ġk h
Ġk ate
Ġk az
ag u
Ġr ar
Ġr ash
od ed
Ġsh if
Ġcom ic
Ġsu pre
Ġpro l
Ġy ield
Ġar thur
Ġar terial
Ġne ut
Ġne ither
Ġro l
Ġro t
Ġro w
un t
Ġex clud
Ġor chest
Ġle e
Ġle op
pt ing
ard o
op l
op al
Ġare na
Ġnot hing
Ġcl oth
Ġall en
ac u
Ġ3 4
our s
ast ers
Ġrec on
Ġrec onstruction
Ġwor n
Ġwor sh
Ġsc at
ell a
ran e
Ġ4 6
Ġcont ained
Ġab oard
Ġint erse
Ġam ph
Ġam itabh
Ġair worth
Ġ5 5
Ġca using
Ġca ught
Ġpart ies
Ġspe ctor
Ġspe ech
ach ing
ff en
Ġres emble
Ġother wise
iz ing
Ġup s
Ġup gr
ph s
Ġsec ured
Ġform al
ib ly
Ġreg urg
Ġev il
Ġev acu
Ġbo at
Ġbo bc
Ġteam mates
ke y
Ġinter im
Ġinter medi
Ġinter change
Ġgen re
Ġgen res
Ġ6 3
Ġwe ak
Ġwe ight
Ġchar ges
Ġ8 2
Ġ8 9
Ġcar go
Ġkn ig
Ġret ained
Ġret iring
Ġfour teenth
Ġjo ining
Ġprodu ct
Ġprodu cers
Ġsome one
Ġpr iest
ren ess
one y
Ġma id
Ġcan n
Ġcons c
Ġtown s
Ġarm ament
Ġph yl
Ġinst ru
Ġ9 3
Ġ9 6
Ġass erted
ning ton
Ġwrit ings
Ġhow son
Ġsupp osed
Ġsign s
Ġappe ars
Ġoper ate
Ġ198 9
Ġent ering
Ġstud ying
Ġ194 7
Ġgu ild
Ġdec isions
Ġtrans l
Ġtrans form
Ġsl ab
Ġclass ical
Ġbas anti
Ġset s
Ġ192 1
Ġter med
ank s
Ġconst antly
rol l
Ġstar ring
Ġpop ul
Ġ15 0
Ġsim ult
Ġdem o
Ġdem on
Ġshow ing
Ġaut om
Ġjun ta
Ġocc asion
Ġhy m
Ġlist ing
Ġdiffer ence
Ġpat ri
Ġge ffen
Ġ195 9
Ġsyn onym
Ġ13 0
Ġclub s
Ġconf l
Ġweek ly
Ġopp osed
Ġtrad emark
Ġmor gan
Ġtemp orarily
Ġbattle field
Ġtot ten
Ġbull och
Ġrun ning
Ġfleet wood
Ġche ck
Ġuk rain
Ġsound s
Ġcor ruption
Ġaer opl
Ġsit ting
Ġmid field
Ġpromot e
Ġpromot ional
Ġsol ely
Ġdeb ate
Ġ196 4
Ġvis it
Ġ186 3
Ġstat ues
Ġprot ected
Ġes cape
Ġep it
Ġrepl acing
Ġcommercial s
vel and
Ġlab ros
Ġvers ions
Ġcirc uit
Ġjew s
Ġconv ey
Ġpra ka
Ġpit ch
Ġpit ched
Ġadm itted
Ġmint s
Ġhit chcock
Ġsun g
omb e
Ġsil ent
Ġdet roit
Ġcut s
Ġstrong ly
Ġcr ash
Ġcr imin
Ġsubm itted
Ġpersonal ity
Ġfac ing
Ġinterest s
Ġfund s
Ġfund ament
Ġstre am
Ġdecl ine
Ġhyg roscopic
Ġdr inking
Ġclaim ing
Ġtreat ment
Ġcle an
Ġcle veland
Ġsubst rate
Ġattempt ing
Ġappl ications
Ġimpro ve
Ġleg acy
Ġdou gl
Ġhon orary
Ġfoc used
Ġread er
Ġfrag ments
Ġrevolution ary
Ġcred it
Ġcrew s
Ġey es
Ġver te
Ġkur fr
Ġ185 3
bod y
Ġbh aduri
Ġpet rie
Ġpred omin
Ġpred ecess
Ġmal ini
Ġyl ides
Ġens ure
Ġinstrum ent
Ġepisod es
Ġarchitect ure
Ġwid er
Ġfr ig
Ġtal ent
Ġsee ing
Ġpun ch
Ġgi ant
Ġstan isaw
Ġneg ative
Ġflow ers
Ġultim ate
Ġcerem on
Ġdun nington
Ġnaz is
Ġgross er
Ġgross ing
Ġsto pped
Ġuns uccess
Ġnewsp apers
Ġindepend ence
aut la
Ġmaxim us
Ġcurrent ly
Ġcroat ian
Ġjap anese
Ġsculpt ures
Ġsour ces
Ġchall enge
Ġhorn ets
Ġgall ian
Ġproble m
Ġpaint ings
Ġdub ious
Ġstay ed
Ġalle ged
Ġscient ific
Ġprint ing
Ġgreg orian
Ġsout heast
Ġbran ch
Ġdial ogues
Ġaltern ative
Ġovers aw
Ġfal se
Ġpain ted
Ġbob by
Ġaccompl ished
Ġswallow ing
Ġdocument ary
Ġaccompan ied
Ġpist ons
Ġthr iller
Ġfuner ary
Ġbattlecru isers
Ġdeliv ery
Ġagricult ural
Ġrod man
Ġamend ment
Ġrestrict ions
Ġcolon el
Ġhyd ro
Ġsket ch
Ġrecomm ended
Ġattract ed
Ġdistingu ished
Ġpasseng ers
Ġchest n
Ġadminist ration
Ġawa reness
Ġcelebr ity
Ġrapid ly
Ġarab ic
Ġcu autla
Ġeag le
Ġjose ph
Ġaten ism
Ġisol ated
Ġraf ael
jee v
Ġire land
Ġott awa
Ġcav al
Ġcres cent
Ġvatic an
Ġperc ussion
Ġspl it
Ġprehist oric
Ġinterpre ted
Ġexpos ure
Ġheadqu arters
Ġconvin ced
Ġcov ers
Ġeld er
Ġdisapp oint
Ġregist ered
Ġinterp ret
Ġpries ts
Ġconspir ators
Ġdivin ities
Ġskel eton
Ġconfisc ated
Ġcoul son
Ġcasual ties
Ġbehavi our
Ġtaugh t
Ġciud ad
Ġpant he
Ġhath or
Ġchos en
Ġairworth iness
Ġlabros aurus
Ġdougl as
Ġkurfr st
Ġunsuccess ful
2 2
a els
b re
b id
b ound
c or
c ou
c rib
c ret
d a
e x
e or
e es
g n
g ation
h m
i ences
j ad
k o
l os
l ake
m ad
m ath
m osp
m usic
o o
s ol
v ation
v arn
w a
w here
y st
y ch
y ers
y ard
y ond
z z
Ġt all
Ġt ry
Ġt rying
Ġt att
in et
in ery
in ently
Ġthe rop
er ated
er ning
Ġs ic
Ġs ens
on ic
on ent
Ġw ings
ed ing
Ġo l
Ġo t
Ġc ell
Ġc ry
Ġc elt
Ġf ost
Ġf ast
Ġf ine
Ġf ib
Ġf ash
at en
Ġb es
Ġb rick
Ġb apt
it ively
or ation
Ġp s
Ġp t
Ġp ine
Ġp ure
Ġp age
Ġp ull
Ġp hen
en ue
Ġm ig
Ġm oth
Ġm umm
an ian
as hed
Ġd il
Ġd om
Ġd og
Ġd ors
Ġd enn
Ġd rop
Ġh aw
ro t
Ġto oth
Ġto pped
Ġto ler
ic ip
ic ient
Ġl t
Ġl omb
Ġl anka
Ġre ed
Ġre ich
Ġre jo
Ġn r
Ġn om
Ġn ach
Ġn one
Ġn iel
Ġn ike
Ġg ate
Ġg het
Ġe c
Ġe art
il ed
il ly
ent ire
ol a
el ve
st one
Ġst ro
Ġst ern
Ġhe at
im ony
im eter
Ġbe ating
Ġbe au
Ġbe yond
ur re
ir a
ir id
ly n
Ġu til
ot o
Ġal t
id ium
ch a
ch o
ch ant
ut ation
ay an
Ġan ime
Ġj r
Ġj ure
Ġj up
Ġj ump
um ents
Ġse em
Ġat rox
Ġat mosp
us es
Ġcon ce
Ġcon qu
Ġcon form
Ġcon sequ
Ġch op
os ph
em pl
Ġk il
Ġr ib
Ġr ivers
Ġr yan
Ġsh arp
Ġsu varn
Ġpro ve
Ġpro of
Ġy ard
if a
if ically
if orm
Ġpl a
Ġpl ates
se ason
ord inated
Ġro s
Ġro ll
Ġro vers
Ġro ster
pp y
Ġle ge
Ġle af
ill es
all ing
all el
art en
ber g
ard ed
ab hum
Ġun c
Ġun rest
ak a
op er
ish vara
ian ce
Ġnot ably
Ġcl ust
ac le
ac les
Ġtw elve
ast opol
Ġfe ud
ap a
ap es
Ġsc ar
Ġpol a
Ġper ce
Ġper fect
Ġafter math
Ġplay s
ust ed
oc aly
Ġad ri
Ġnew sted
Ġtim or
Ġcont e
Ġab und
Ġint ers
Ġman s
Ġam ounts
Ġam jad
Ġen ergy
Ġen closed
Ġrep utation
Ġco ined
Ġag ree
Ġim ag
ok ing
Ġspe nd
Ġdis g
Ġfilm ing
Ġsp ace
Ġi hl
ph ael
Ġmus lim
Ġfin ance
Ġsec uring
Ġunder standing
Ġra y
Ġra cing
Ġra phael
Ġfl u
Ġfl ot
Ġfl ix
Ġform ing
Ġreg ister
Ġbl own
Ġbl az
Ġout l
Ġout ages
ric ted
Ġwar m
Ġwar ne
Ġwar ned
ke eper
Ġinter ned
Ġtra its
Ġ6 9
Ġspec ulation
Ġcar son
Ġkn ocked
Ġend ors
Ġ7 2
Ġprodu ces
Ġmin er
ren ts
one ga
Ġpubl is
Ġma ury
Ġcons ult
Ġmet eor
Ġnum ism
Ġatt rib
Ġatt ached
Ġimp ression
Ġph ase
Ġph osph
Ġmar c
Ġmar g
Ġmar io
Ġsy mp
Ġsy dney
Ġem pt
Ġem ily
Ġinst alled
Ġbet aine
ick i
Ġass ess
Ġsong writ
Ġpe aking
Ġpres erved
Ġpres ervation
Ġyork shire
ys aw
Ġso il
Ġso ft
Ġso orm
Ġinc ident
Ġlead ership
Ġele ctor
iew icz
Ġqu e
Ġsign al
Ġsing ing
Ġoper ated
ug g
Ġ198 3
Ġstud ied
Ġeng age
Ġeng ines
Ġ194 6
Ġprom pted
Ġed ge
Ġdec re
Ġdec omm
Ġadd ing
Ġmark s
Ġrock ef
Ġbest s
Ġrece ive
Ġcrit eria
Ġord ers
Ġhum or
Ġ193 2
Ġ193 3
Ġ193 4
Ġexp ress
Ġexp osed
Ġexp ensive
Ġdesign s
Ġreturn s
Ġste als
Ġste ps
Ġcontin uous
Ġpar od
Ġpost ers
Ġpost hum
Ġstart s
Ġsuccess ive
Ġaut umn
Ġsupport ers
cept ion
Ġhy p
Ġlist en
ution ary
Ġcolle agues
Ġ195 7
Ġorgan ic
Ġorgan isation
Ġconsid ers
Ġ11 0
Ġsyn cret
Ġel ite
Ġsev astopol
Ġyoung er
Ġ17 9
Ġann ivers
Ġappro ved
Ġperform er
Ġassoci ations
Ġtri ple
Ġtri oxide
Ġpass es
Ġpass age
Ġcal c
Ġcal am
Ġcal if
Ġadv ent
Ġsound ing
Ġcor rect
Ġisland s
Ġauth ors
Ġaccording ly
Ġhol lywood
Ġsol e
Ġreal m
Ġreal ized
Ġ196 8
Ġcommun ication
omet ric
Ġali en
Ġstat ue
Ġep ic
Ġturn ing
Ġfem ales
Ġfore ver
Ġdeath s
Ġconv oy
Ġcur t
Ġdepart ure
Ġposs ibility
Ġposs ession
Ġexpl os
Ġexpl ains
Ġcommon ly
Ġcapt ure
Ġintern al
Ġhistor ians
Ġmer ge
Ġmer ry
Ġgra y
Ġshould er
Ġcolumb ia
rop ol
Ġroad s
Ġsan ct
Ġwind ow
Ġattend ants
Ġmich aels
Ġvict im
Ġcivil ian
Ġ190 2
Ġ190 5
Ġ190 9
Ġstri king
Ġround s
Ġeffect ive
Ġve h
Ġsubst ant
Ġsulf onium
Ġtransport ation
Ġviol ation
Ġinform ed
Ġjourn ey
Ġ188 0
Ġblock s
Ġfail ing
Ġfail ure
Ġ187 9
Ġmo on
Ġmo ore
Ġread y
Ġrich ards
Ġaff airs
Ġprob ability
ii i
Ġgar uda
Ġruss ell
Ġcoup le
Ġmc entire
Ġmot if
rack s
Ġwat ers
Ġwat ching
Ġcred its
Ġfact ors
Ġmach inery
Ġchampions hips
Ġkee per
Ġru ined
Ġ185 0
Ġdoes n
Ġmal one
Ġmethod s
Ġphys ic
Ġapproach ing
Ġfict ion
Ġdut y
Ġdut ies
Ġgamb ling
Ġarg ues
Ġconstru ct
Ġfocus ing
Ġengine ering
Ġmeas uring
Ġantiqu arian
Ġelect ron
Ġeconom y
Ġsto pping
Ġvan cou
Ġchap ter
Ġcinem as
Ġbank s
Ġdro ve
Ġdro pped
Ġdiscuss ion
Ġpakistan i
Ġkind erg
Ġcompos er
Ġmaint ain
Ġprevent ed
Ġlibr aries
go ing
Ġble w
Ġbud d
Ġple as
Ġbeat en
Ġoppos ing
Ġwa it
Ġwre ath
Ġwithd rew
Ġvir t
Ġvir gin
Ġdism issed
Ġslow ly
Ġesc aped
Ġfrequ ent
chest er
Ġaim ed
Ġpus hed
Ġpus hing
Ġscient ists
Ġweap on
Ġpoor ly
Ġnorm ally
Ġconsider able
Ġdeterm ine
Ġdeterm ined
Ġtig er
Ġbran ched
Ġlear ned
Ġemot ional
Ġelev en
Ġcounter p
Ġmob ile
Ġdream works
Ġwee haw
Ġaccompl ish
Ġconcent ration
Ġreflect ing
Ġsurrender ed
Ġom n
Ġlay ers
Ġreform s
Ġsund ance
Ġspir its
Ġapparent ly
Ġfuner al
Ġbattlecru iser
Ġcycl one
Ġagricult ure
Ġseg ment
Ġflint lock
Ġsuppl ies
Ġdefend ers
Ġbring ing
Ġmicrolight s
Ġencou rag
Ġbrief ly
Ġnick n
Ġseek ing
Ġmanifest ations
Ġpremi ere
Ġsett led
Ġlicens ing
Ġdreadn ought
Ġthousand s
Ġsar ah
Ġrend ition
Ġanch or
Ġvic inity
Ġconne ction
Ġadvert is
Ġconfir med
Ġreinforce ments
Ġsele ction
Ġhart ford
Ġgust s
Ġbeaut iful
oselect ive
Ġka iser
Ġexclus ively
Ġagre ement
Ġagust n
Ġspan ish
Ġmechan ism
Ġoccas ions
Ġcorrespond ing
Ġlands cape
Ġrespond ed
Ġconvers ely
Ġtas k
Ġhann eman
Ġrevers ibility
Ġengra ver
Ġguid ance
Ġelb ow
Ġpolitic ians
Ġsacr ifice
Ġdahl onega
tig all
Ġpor fir
Ġpill ars
Ġpett it
Ġmall ory
Ġtool s
Ġkon kan
Ġkev in
Ġrat ings
Ġcommod ore
Ġepox ides
bur gh
Ġtub es
Ġhud son
Ġlod ge
Ġgle ba
Ġsupre me
rane an
Ġbobc ats
Ġconsc ious
Ġsimult aneously
Ġoccasion ally
Ġconfl ict
Ġukrain ian
Ġfundament al
Ġtatt nall
Ġtherop od
Ġfash ion
Ġnach tigall
Ġniel sen
Ġeart hen
Ġjure z
Ġsuvarn abhum
Ġsoorm a
Ġdecomm ission
Ġrockef eller
Ġvancou ver
Ġkinderg arten
Ġvirgin ia
Ġweehaw ken
Ġsuvarnabhum i
5 0
6 0
a ol
b el
b our
b les
b rae
c ceed
d d
d ress
f e
g ers
g ency
h ire
h iz
i res
l ers
l ore
l ten
m ar
m ina
n n
n ic
o j
p se
r at
r ating
r ise
r arian
t os
u a
v en
v ised
w ed
w atch
y e
y m
Ġ nd
Ġt an
Ġt am
Ġt art
in al
in osaur
Ġs q
Ġs in
Ġs ess
Ġs ank
re ll
Ġo ra
Ġo res
Ġc d
Ġc ess
Ġc ran
Ġc ous
Ġc ris
Ġc amb
Ġf ant
Ġf ert
at o
at ra
at ile
Ġb ore
Ġb ure
Ġb old
Ġb ry
Ġb ells
Ġb rian
it o
it t
or ough
Ġp u
Ġp y
Ġp ul
Ġp ap
Ġp ron
Ġp ounds
Ġin herent
ar is
Ġm ist
an ay
al ion
ing ly
as tern
Ġd ave
Ġd ressed
Ġd na
Ġd war
Ġd ipl
Ġd inosaur
Ġand h
Ġh ire
Ġh amp
ro om
ro ph
Ġto mas
Ġto dd
ic he
ic ate
Ġl en
Ġl an
Ġl ion
Ġl ith
Ġre ctor
Ġre uter
Ġn ub
Ġn elly
Ġg at
Ġg il
Ġg am
Ġg ary
Ġg ree
Ġg har
Ġth ames
Ġth omp
Ġth orough
Ġe u
il ation
il ton
ol es
el lect
st e
ad a
ad ow
Ġon going
om or
om ena
Ġst or
Ġst ing
Ġst ab
Ġst up
Ġst ret
Ġst ages
Ġst ories
Ġst ores
Ġst ability
Ġfor bes
Ġfor bid
im ents
ur er
ur ra
ur ally
ur day
Ġas c
ot ing
Ġal tered
Ġal mina
id er
ch ang
ra el
ra ys
ra ham
iv ia
et ed
ig hed
ut t
ut land
Ġan s
Ġj a
Ġj os
Ġj utland
um ption
Ġse m
Ġwh y
Ġat um
ist ocr
Ġv ent
Ġv ul
Ġv int
Ġv ert
Ġv ision
Ġv ote
Ġcon clusion
Ġcon greg
Ġ19 00
Ġis les
Ġis rael
ter ly
Ġch ul
os ing
os lav
av a
av en
Ġk i
Ġk et
Ġk een
Ġk elly
ag en
ag ara
Ġr is
Ġr ic
Ġr ut
Ġr ating
Ġr pg
Ġr ush
Ġr sol
od e
Ġsu d
Ġsu cceed
Ġy ug
Ġar d
Ġar n
Ġar istocr
Ġne igh
if act
Ġpl ant
Ġpl acing
se x
un ch
Ġex isted
ill a
ich i
pt ic
pt ers
ab urra
Ġun f
Ġun n
Ġun cle
ak ers
op her
ant our
ie ce
ie val
ment ed
Ġcl er
Ġcl ar
Ġcl ay
Ġcl othes
Ġall oy
Ġall osaur
Ġall music
ac ity
ac hes
our se
ast ing
ap h
ap pe
ap uri
Ġsc outing
Ġsc apa
ell ion
Ġpol e
oc ity
Ġtim ber
Ġte en
Ġte aching
Ġcont ribution
man n
Ġab raham
Ġint ent
Ġint ellect
ome ch
Ġman gal
Ġrep air
Ġrep airs
Ġgo e
Ġgo es
Ġco y
Ġcomp rising
Ġdes ert
Ġag rarian
ough ts
Ġoff ers
Ġoff sh
Ġim pl
ok aburra
Ġair play
Ġair line
Ġ5 9
Ġca utionary
Ġpart ition
Ġspe ak
Ġdis appe
Ġfilm fare
Ġsp ur
Ġres erve
iz es
ph ae
Ġsec ure
Ġover c
Ġunder stand
Ġra id
Ġra ise
act ed
Ġfl own
Ġfl ash
Ġap g
Ġme g
Ġpre gn
Ġreg ulated
Ġbl oom
Ġmore los
Ġev e
ron s
Ġrem un
Ġrem ove
Ġmon ten
Ġmon othe
Ġtra il
Ġspec ifically
Ġwe bb
Ġ8 3
Ġ8 5
Ġcol e
Ġcar ry
Ġcar pent
Ġno ises
Ġret ard
Ġmin d
ren cy
Ġrev ival
Ġrev enge
Ġrel ocated
Ġacc ounts
Ġmet ropol
Ġimp ress
Ġimp oss
Ġdev on
Ġdev out
Ġdev otion
Ġ9 9
Ġ9 00
ind a
Ġsch mid
Ġgener ated
iet h
iet ies
Ġlead ers
Ġli qu
Ġli ked
Ġele cted
iew ski
Ġbro bb
Ġqu ant
Ġ0 9
Ġdef ended
Ġappe als
Ġart istic
Ġart work
Ġart ifact
end ar
end ers
Ġdiv or
Ġdo z
Ġdo ctor
Ġoper ating
Ġbel g
Ġlar ry
Ġent itled
Ġeng ag
Ġlo os
orn ia
Ġprom ul
Ġprom ise
Ġprom inently
Ġgu ide
Ġadd ington
Ġdisc ern
Ġtrans cend
Ġmov es
Ġdesc ript
Ġcould n
Ġmain st
Ġloc ations
Ġbas al
Ġbas id
Ġinf inity
Ġthough ts
Ġexp and
Ġexp ans
Ġmill enn
Ġ10 2
ather ine
ĠĠĠĠ ĠĠĠ
Ġ15 7
Ġbar ry
Ġbar racks
Ġmy res
Ġmy ster
Ġmy cel
Ġsim on
Ġsix teen
Ġpar ach
Ġpar allel
Ġpost c
Ġins isted
Ġmat t
Ġhead dress
Ġshow ed
Ġcult s
Ġmed al
Ġmed iter
Ġmed ieval
Ġdist urb
Ġ12 0
Ġhy phae
Ġperson s
Ġperson ally
Ġperson ified
Ġav oid
Ġhel l
Ġpat rol
Ġmiss ile
Ġ195 5
Ġ195 6
Ġexcav ate
Ġty ing
Ġpur i
Ġconsid ering
Ġsyn th
Ġyoung est
Ġaust ria
Ġbelie ving
Ġcharacter ised
Ġuse ful
Ġ197 1
Ġappro ached
Ġappro pri
Ġconf used
Ġstra ined
Ġprov ince
Ġtrad itions
bo at
bo ards
Ġdel ight
ring ton
sen i
Ġche ese
Ġche lten
Ġcour ty
Ġrest ricted
Ġauth ored
off ic
Ġland ed
Ġland own
hen s
Ġsw an
Ġhol y
Ġcommer ce
ograph ical
Ġlim antour
Ġpromot ing
Ġtre ated
Ġ196 9
Ġcat al
Ġvis ible
Ġ186 0
Ġstr ateg
Ġroman o
Ġcolum n
Ġinvol ves
Ġwal ter
Ġpa rent
Ġallow s
iqu es
Ġcirc ular
Ġcirc ulated
Ġcirc ulate
atic us
Ġconv ent
Ġcomed ian
Ġcru el
Ġcap acity
Ġauthor ized
Ġsen ate
Ġrad ha
Ġhun wick
Ġbeg un
Ġcover ing
Ġpresident ial
Ġpit t
Ġpit ching
Ġhouse hold
Ġcritic ized
Ġox y
Ġstory line
Ġsun k
Ġmer chant
Ġdeal ership
Ġbus qu
Ġfew est
Ġattend ant
Ġbatt alion
Ġstrong er
Ġless er
Ġ190 7
Ġmaterial s
Ġfac es
Ġfac ade
Ġpers pective
Ġcompet ed
Ġput ting
Ġpot tery
Ġdr unk
Ġstri ker
Ġclaim s
Ġident ity
ont in
Ġhill s
Ġcomb at
Ġcomb ination
Ġphot ography
Ġphot ograp
Ġhor se
Ġimpro vements
Ġmass ive
Ġball istic
Ġbreak out
Ġhost ile
Ġvol umes
Ġ40 3
Ġcompan ion
Ġcompan ies
Ġ187 4
Ġread ily
Ġclos ure
Ġaff ili
Ġpolic ies
yn astic
Ġbi omech
Ġmult i
Ġanim ated
Ġview ed
Ġrul er
Ġrul ing
Ġrank ing
Ġtest s
Ġsat urday
Ġwall s
Ġdu at
Ġgar n
Ġchamber ed
Ġmc g
Ġmot or
Ġmot ion
Ġmot iv
Ġram gar
Ġtechn iques
Ġoccur s
Ġcer at
Ġrit ual
Ġqual ified
Ġcomment ing
Ġ185 4
Ġ189 0
Ġfind s
Ġmeet ings
Ġliter ary
Ġprotest ers
che l
Ġbh opal
Ġpred ynastic
Ġmethod ologies
Ġinstrum ental
Ġbow ie
Ġfavor able
ius z
Ġpay ne
Ġdon ated
Ġreb ounds
Ġreb ellion
Ġsubject s
Ġfit watch
Ġlif et
Ġlif ted
Ġsepar ated
Ġconver ting
Ġexcept ion
Ġcab inet
Ġmeas ures
Ġachie ve
Ġwilliam s
Ġdro pping
Ġpoly the
Ġenc oun
Ġdisplay ed
Ġdiscuss ed
Ġder ived
Ġker b
Ġexhib ited
Ġcompos ition
Ġx iii
Ġple ase
Ġemer gency
Ġsevent een
lo ad
Ġsus pect
Ġsus pend
Ġcateg ories
Ġlink ed
Ġindic ate
Ġindic ates
Ġ180 6
Ġwil m
Ġwil hel
Ġbad ly
Ġmys elf
Ġandrew s
Ġrefer ences
Ġdism ember
Ġcosm os
Ġtrib ute
Ġnin et
Ġprint ed
Ġemphas ised
Ġsail ed
Ġsail ors
Ġbridge port
Ġgreg ory
Ġstrugg le
Ġfolk lore
oty pe
Ġdeploy ed
Ġdeploy ment
opol is
Ġsurp ass
Ġemot ion
Ġbelong ed
Ġbelong ing
Ġsubstit uted
Ġinn ings
Ġmes olithic
Ġsched ule
Ġenem ies
Ġcomplet ion
Ġconcent rated
Ġswallow ed
Ġtaxon omy
Ġaccompan ying
Ġpist on
Ġmut ual
Ġdrum s
Ġsund ial
Ġprepar ation
Ġregul atory
Ġemb arked
Ġelimin ate
Ġdeliv ered
Ġconnect ing
Ġaz irid
Ġhous ed
Ġhous es
Ġamb ient
Ġprem ises
Ġconstit ution
Ġencou raged
Ġtrou ble
Ġsort ie
Ġdepend ing
Ġrud olph
esty le
Ġpremi ered
Ġglass es
Ġathlet ic
Ġdreadn oughts
Ġbon us
Ġdru gs
Ġham ilton
Ġeth nic
Ġstal in
Ġko okaburra
Ġrhy mes
Ġrhy thm
Ġshut out
Ġorn ament
Ġpercent age
Ġaggress ive
Ġfilmm aker
Ġincorpor ated
Ġwithdra w
Ġcustom ers
Ġinvestig ation
Ġtort ure
Ġwit ness
Ġjim mad
Ġenanti oselective
Ġpreced ing
Ġminim al
Ġdeprec ating
Ġnorthw est
Ġpropos al
Ġprofession ally
Ġdiagn osed
Ġpharaoh s
tra k
Ġsars ens
Ġles ter
Ġrid ot
Ġrub in
Ġcontrovers y
Ġresc ue
Ġprinc ip
Ġcorpor ation
Ġintrodu ction
Ġabsor bed
Ġnegot i
Ġodor atus
Ġalex ander
zew ski
Ġdig ital
Ġlem on
stit utional
Ġasi aticus
Ġproc ured
Ġuncon stitutional
Ġscr ut
Ġenjoy ed
Ġrail road
Ġdiscip line
Ġjewel ry
Ġastron omical
Ġchalleng es
Ġcasem ate
Ġig ual
Ġtiss ue
Ġsie ge
Ġwick ford
Ġfreed om
Ġml b
Ġmit che
Ġstu art
Ġkaz imierz
Ġneut ral
Ġrol ling
Ġleop old
Ġworsh ipped
Ġscat tered
Ġinterse ction
Ġups et
Ġintermedi ate
Ġmaid an
Ġphyl ogen
Ġhym ns
Ġmidfield er
Ġcrimin al
Ġverte brae
Ġceremon ies
Ġchestn uts
crib ed
Ġphen omena
Ġlomb ardo
Ġghet tos
Ġbeau f
urre ction
Ġchop ra
Ġlege nd
Ġfeud al
Ġconte xt
Ġmaury as
Ġmeteor ological
Ġphosph orus
Ġbests elling
Ġposthum ously
Ġannivers ary
Ġcalc ulated
Ġcalif ornia
Ġvirt ually
Ġadvertis ement
Ġdwar f
Ġhamp shire
Ġghar apuri
Ġthomp son
Ġstup a
Ġvint age
Ġrsol ue
Ġyug oslav
Ġmangal ore
Ġoffsh ore
Ġmetropol itan
Ġimposs ible
Ġschmid t
Ġbrobb el
Ġmyster ious
Ġmediter ranean
Ġchelten ham
Ġstrateg ic
Ġramgar h
Ġwilhel m
Ġjimmad seni
6 9
a q
a ug
c z
c ombe
d o
d ie
d ale
f is
f ull
f riend
g on
g ow
h ran
h ouse
h yl
h ma
h room
i y
i ents
i ens
i ya
j u
j owa
k owski
l c
l an
l ow
m o
m is
m ark
m ely
n o
n ow
n ite
n icki
n iewski
o ant
o ons
p a
p m
p oint
r ig
r ors
r ator
r ze
s es
u ge
u nder
u ky
u ki
v i
v in
v ings
w w
y d
y cl
z er
Ġt in
Ġt ag
Ġt ies
Ġt ight
Ġt ast
Ġt amp
Ġt orn
Ġt ina
Ġt uck
Ġt ells
Ġt iny
Ġa e
Ġa u
Ġa es
Ġa ck
Ġa head
Ġa rose
in us
in isc
Ġthe ories
er as
er ver
er able
er ias
Ġs ale
on al
Ġw ore
Ġw ants
Ġo pt
Ġo vation
Ġc ad
Ġc ot
Ġc ul
Ġc ass
Ġc raft
nd ed
Ġf o
Ġf ro
Ġf ish
Ġf les
Ġf ried
Ġf itted
Ġf ont
at ible
at isf
at hetic
Ġb ern
Ġb enn
Ġb ann
Ġb ald
it r
it ch
it ely
or ial
or ge
Ġp ent
Ġp up
Ġp orn
Ġp ipp
Ġin g
Ġin aug
is i
ar on
ar at
ar th
Ġm ama
Ġm tv
Ġm asters
an us
an cy
an agara
al ers
as p
as gow
Ġd ur
Ġd ost
Ġd ress
Ġd ens
Ġd ock
Ġd igg
Ġd well
Ġd agen
Ġand rze
Ġh i
Ġh o
Ġh ou
Ġh ab
Ġh az
Ġh ague
Ġh oard
ro d
ro g
ro us
Ġto u
