{"<s>":0,"<pad>":1,"</s>":2,"<unk>":3,"<mask>":4,"!":5,"\"":6,"#":7,"$":8,"%":9,"&":10,"'":11,"(":12,")":13,"*":14,"+":15,",":16,"-":17,".":18,"/":19,"0":20,"1":21,"2":22,"3":23,"4":24,"5":25,"6":26,"7":27,"8":28,"9":29,":":30,";":31,"<":32,"=":33,">":34,"?":35,"@":36,"A":37,"B":38,"C":39,"D":40,"E":41,"F":42,"G":43,"H":44,"I":45,"J":46,"K":47,"L":48,"M":49,"N":50,"O":51,"P":52,"Q":53,"R":54,"S":55,"T":56,"U":57,"V":58,"W":59,"X":60,"Y":61,"Z":62,"[":63,"\\":64,"]":65,"^":66,"_":67,"`":68,"a":69,"b":70,"c":71,"d":72,"e":73,"f":74,"g":75,"h":76,"i":77,"j":78,"k":79,"l":80,"m":81,"n":82,"o":83,"p":84,"q":85,"r":86,"s":87,"t":88,"u":89,"v":90,"w":91,"x":92,"y":93,"z":94,"{":95,"|":96,"}":97,"~":98,"¡":99,"¢":100,"£":101,"¤":102,"¥":103,"¦":104,"§":105,"¨":106,"©":107,"ª":108,"«":109,"¬":110,"®":111,"¯":112,"°":113,"±":114,"²":115,"³":116,"´":117,"µ":118,"¶":119,"·":120,"¸":121,"¹":122,"º":123,"»":124,"¼":125,"½":126,"¾":127,"¿":128,"À":129,"Á":130,"Â":131,"Ã":132,"Ä":133,"Å":134,"Æ":135,"Ç":136,"È":137,"É":138,"Ê":139,"Ë":140,"Ì":141,"Í":142,"Î":143,"Ï":144,"Ð":145,"Ñ":146,"Ò":147,"Ó":148,"Ô":149,"Õ":150,"Ö":151,"×":152,"Ø":153,"Ù":154,"Ú":155,"Û":156,"Ü":157,"Ý":158,"Þ":159,"ß":160,"à":161,"á":162,"â":163,"ã":164,"ä":165,"å":166,"æ":167,"ç":168,"è":169,"é":170,"ê":171,"ë":172,"ì":173,"í":174,"î":175,"ï":176,"ð":177,"ñ":178,"ò":179,"ó":180,"ô":181,"õ":182,"ö":183,"÷":184,"ø":185,"ù":186,"ú":187,"û":188,"ü":189,"ý":190,"þ":191,"ÿ":192,"Ā":193,"ā":194,"Ă":195,"ă":196,"Ą":197,"ą":198,"Ć":199,"ć":200,"Ĉ":201,"ĉ":202,"Ċ":203,"ċ":204,"Č":205,"č":206,"Ď":207,"ď":208,"Đ":209,"đ":210,"Ē":211,"ē":212,"Ĕ":213,"ĕ":214,"Ė":215,"ė":216,"Ę":217,"ę":218,"Ě":219,"ě":220,"Ĝ":221,"ĝ":222,"Ğ":223,"ğ":224,"Ġ":225,"ġ":226,"Ģ":227,"ģ":228,"Ĥ":229,"ĥ":230,"Ħ":231,"ħ":232,"Ĩ":233,"ĩ":234,"Ī":235,"ī":236,"Ĭ":237,"ĭ":238,"Į":239,"į":240,"İ":241,"ı":242,"Ĳ":243,"ĳ":244,"Ĵ":245,"ĵ":246,"Ķ":247,"ķ":248,"ĸ":249,"Ĺ":250,"ĺ":251,"Ļ":252,"ļ":253,"Ľ":254,"ľ":255,"Ŀ":256,"ŀ":257,"Ł":258,"ł":259,"Ń":260,"Ġt":261,"Ġa":262,"he":263,"in":264,"Ġthe":265,"er":266,"Ġs":267,"on":268,"Ġ,":269,"re":270,"Ġw":271,"ed":272,"Ġo":273,"Ġc":274,"nd":275,"Ġf":276,"at":277,"Ġ.":278,"Ġb":279,"it":280,"or":281,"Ġp":282,"Ġin":283,"is":284,"en":285,"ar":286,"Ġm":287,"Ġof":288,"es":289,"an":290,"al":291,"ing":292,"as":293,"Ġd":294,"Ġand":295,"Ġh":296,"ro":297,"Ġto":298,"ic":299,"Ġl":300,"ion":301,"Ġre":302,"Ġn":303,"Ġg":304,"ou":305,"Ġth":306,"Ġe":307,"il":308,"ent":309,"ol":310,"Ġ\"":311,"Ġ1":312,"el":313,"st":314,"le":315,"ad":316,"Ġwas":317,"am":318,"ct":319,"Ġon":320,"om":321,"Ġst":322,"Ġhe":323,"Ġfor":324,"im":325,"Ġbe":326,"ur":327,"Ġas":328,"Ġ-":329,"ĠĠ":330,"ir":331,"ly":332,"Ġu":333,"ot":334,"Ġal":335,"id":336,"ith":337,"ch":338,"ra":339,"iv":340,"et":341,"ig":342,"Ġwith":343,"Ġ'":344,"ut":345,"ation":346,"Ġ2":347,"ce":348,"ay":349,"ers":350,"Ġthat":351,"Ġan":352,"Ġj":353,"ow":354,"um":355,"Ġde":356,"Ġse":357,"Ġwh":358,"Ġat":359,"ul":360,"us":361,"ist":362,"Ġv":363,"Ġit":364,"Ġby":365,"Ġcon":366,"Ġ19":367,"Ġis":368,"ter":369,"rom":370,"Ġch":371,"ver":372,"th":373,"os":374,"em":375,"av":376,"Ġk":377,"Ġ)":378,"Ġ(":379,"Ġhis":380,"and":381,"ag":382,"00":383,"ck":384,"ies":385,"Ġr":386,"od":387,"Ġsh":388,"her":389,"pe":390,"Ġcom":391,"Ġsu":392,"Ġpro":393,"ere":394,"ain":395,"est":396,"Ġwere":397,"Ġy":398,"Ġfrom":399,"Ġar":400,"Ġne":401,"ore":402,"if":403,"Ġpl":404,"ort":405,"se":406,"ord":407,"Ġro":408,"un":409,"ri":410,"res":411,"Ġex":412,"Ġor":413,"pp":414,"Ġle":415,"ill":416,"all":417,"art":418,"ich":419,"pt":420,"ate":421,"ber":422,"igh":423,"ld":424,"ated":425,"ame":426,"ard":427,"ab":428,"Ġun":429,"ess":430,"ak":431,"gh":432,"op":433,"qu":434,"ong":435,"ity":436,"ru":437,"ant":438,"ish":439,"Ġhad":440,"rit":441,"Ġwhe":442,"ud":443,"red":444,"og":445,"rou":446,"Ġwhich":447,"Ġare":448,"ian":449,"Ġ;":450,"ie":451,"ial":452,"ive":453,"ip":454,"ost":455,"Ġnot":456,"ia":457,"ov":458,"so":459,"ment":460,"Ġcl":461,"Ġall":462,"Ġaf":463,"ĠĠĠ":464,"ary":465,"ight":466,"ac":467,"Ġ3":468,"Ġtw":469,"Ġ20":470,"our":471,"ction":472,"ast":473,"Ġ200":474,"ave":475,"Ġfe":476,"Ġrec":477,"Ġwor":478,"Ġher":479,"ue":480,"ide":481,"ther":482,"cl":483,"Ġthis":484,"ine":485,"ap":486,"Ġsc":487,"Ġshe":488,"ell":489,"Ġalso":490,"ical":491,"cc":492,"Ġtheir":493,"Ġpol":494,"ure":495,"Ġper":496,"Ġafter":497,"ign":498,"Ġplay":499,"ust":500,"ran":501,"ub":502,"oc":503,"Ġad":504,"ition":505,"Ġnew":506,"ect":507,"Ġfir":508,"Ġtim":509,"Ġ4":510,"Ġte":511,"wn":512,"Ġcont":513,"ge":514,"Ġfirst":515,"ous":516,"Ġone":517,"ack":518,"man":519,"Ġab":520,"Ġ201":521,"Ġint":522,"ould":523,"ome":524,"ear":525,"Ġman":526,"out":527,"Ġam":528,"Ġtwo":529,"Ġen":530,"hed":531,"Ġrep":532,"ason":533,"Ġgo":534,"ater":535,"nder":536,"ass":537,"Ġcomm":538,"ire":539,"Ġits":540,"Ġyear":541,"Ġco":542,"Ġind":543,"Ġcomp":544,"Ġbut":545,"ond":546,"Ġdes":547,"oun":548,"Ġag":549,"Ġhas":550,"ations":551,"ough":552,"oll":553,"ree":554,"uring":555,"ult":556,"Ġoff":557,"ark":558,"Ġim":559,"Ġfil":560,"du":561,"ok":562,"per":563,"Ġair":564,"Ġwho":565,"Ġ5":566,"old":567,"Ġca":568,"Ġpart":569,"Ġspe":570,"Ġthey":571,"Ġ18":572,"ory":573,"Ġhave":574,"Ġbeen":575,"Ġdis":576,"ach":577,"Ġgod":578,"Ġfilm":579,"int":580,"own":581,"ff":582,"Ġsp":583,"te":584,"Ġres":585,"Ġalb":586,"les":587,"Ġother":588,"Ġus":589,"Ġseason":590,"iz":591,"ely":592,"Ġi":593,"Ġup":594,"ally":595,"Ġalbum":596,"ph":597,"Ġmus":598,"Ġbec":599,"ry":600,"ence":601,"ound":602,"ities":603,"ile":604,"Ġrecord":605,"olog":606,"Ġfin":607,"Ġsec":608,"Ġtime":609,"Ġ:":610,"Ġover":611,"ade":612,"Ġunder":613,"ced":614,"Ġear":615,"Ġra":616,"age":617,"ited":618,"Ġduring":619,"act":620,"ft":621,"clud":622,"Ġfl":623,"Ġap":624,"Ġser":625,"Ġme":626,"ied":627,"Ġpre":628,"Ġform":629,"ib":630,"Ġreg":631,"ordan":632,"Ġbl":633,"als":634,"Ġout":635,"ents":636,"Ġjordan":637,"Ġmore":638,"Ġev":639,"ric":640,"ath":641,"ased":642,"Ġant":643,"ase":644,"ron":645,"Ġrem":646,"ite":647,"Ġbo":648,"Ġwar":649,"Ġmon":650,"Ġteam":651,"for":652,"Ġthem":653,"ces":654,"ward":655,"Ġinclud":656,"ice":657,"ress":658,"ke":659,"ance":660,"Ġbrit":661,"Ġmost":662,"ubl":663,"Ġ199":664,"Ġhim":665,"Ġact":666,"Ġgame":667,"round":668,"gan":669,"Ġinter":670,"fer":671,"Ġgen":672,"Ġarch":673,"ious":674,"Ġtra":675,"ose":676,"Ġ6":677,"Ġspec":678,"Ġwe":679,"Ġchar":680,"Ġwork":681,"ae":682,"Ġrele":683,"urn":684,"ember":685,"Ġinto":686,"way":687,"ild":688,"rough":689,"ors":690,"Ġ8":691,"Ġcol":692,"pl":693,"Ġcar":694,"Ġbu":695,"eler":696,"Ġno":697,"ute":698,"Ġkn":699,"ered":700,"reat":701,"Ġret":702,"Ġend":703,"Ġfour":704,"ork":705,"able":706,"Ġ7":707,"Ġac":708,"ings":709,"Ġjo":710,"ular":711,"Ġprodu":712,"Ġwheeler":713,"ace":714,"Ġsome":715,"ony":716,"Ġpr":717,"Ġsecond":718,"Ġmin":719,"Ġthere":720,"ren":721,"Ġonly":722,"ved":723,"ins":724,"one":725,"Ġpubl":726,"Ġma":727,"Ġrev":728,"Ġwhen":729,"Ġrel":730,"ted":731,"Ġsub":732,"hip":733,"ix":734,"ss":735,"Ġwould":736,"Ġcan":737,"ens":738,"rib":739,"Ġthree":740,"Ġcons":741,"Ġtown":742,"aeolog":743,"Ġpo":744,"Ġapp":745,"tle":746,"erson":747,"Ġwhile":748,"ull":749,"ts":750,"Ġacc":751,"Ġarchaeolog":752,"ey":753,"Ġmet":754,"oth":755,"Ġarm":756,"Ġcent":757,"ions":758,"Ġagain":759,"ates":760,"ans":761,"Ġnum":762,"Ġatt":763,"Ġimp":764,"Ġsur":765,"Ġph":766,"Ġmar":767,"ames":768,"land":769,"Ġsy":770,"ished":771,"Ġlater":772,"Ġem":773,"Ġsa":774,"Ġinst":775,"Ġbet":776,"Ġdev":777,"Ġbeing":778,"ick":779,"ational":780,"Ġnor":781,"Ġthrough":782,"een":783,"ock":784,"Ġ9":785,"Ġthese":786,"Ġgods":787,"Ġmay":788,"Ġlong":789,"Ġmusic":790,"Ġsm":791,"iss":792,"ject":793,"ind":794,"Ġger":795,"Ġass":796,"Ġmany":797,"Ġsong":798,"Ġbritish":799,"ning":800,"Ġsch":801,"Ġhigh":802,"Ġpe":803,"Ġgener":804,"Ġsou":805,"Ġgerman":806,"iel":807,"Ġwrit":808,"Ġsuch":809,"ollow":810,"Ġfollow":811,"Ġpres":812,"Ġsever":813,"Ġyork":814,"ys":815,"Ġso":816,"ang":817,"Ġdep":818,"Ġabout":819,"fore":820,"iet":821,"ired":822,"Ġhist":823,"Ġmade":824,"raft":825,"ake":826,"Ġwhere":827,"ail":828,"Ġ00":829,"Ġtr":830,"Ġinc":831,"Ġhow":832,"Ġlead":833,"gy":834,"ict":835,"Ġantim":836,"Ġli":837,"Ġele":838,"amp":839,"Ġpos":840,"iew":841,"Ġdire":842,"Ġship":843,"rist":844,"Ġbro":845,"Ġthan":846,"form":847,"aw":848,"Ġqu":849,"ons":850,"Ġnov":851,"Ġpolish":852,"Ġsupp":853,"az":854,"Ġz":855,"Ġsign":856,"Ġbat":857,"Ġ000":858,"Ġworld":859,"up":860,"Ġ0":861,"Ġsing":862,"Ġdef":863,"send":864,"Ġappe":865,"ween":866,"Ġbefore":867,"Ġalth":868,"Ġvar":869,"Ġart":870,"Ġcare":871,"Ġbetween":872,"Ġalthough":873,"end":874,"led":875,"Ġtownsend":876,"son":877,"Ġdiv":878,"ower":879,"ount":880,"Ġaward":881,"ern":882,"ised":883,"Ġdirect":884,"Ġob":885,"Ġdo":886,"Ġthen":887,"Ġoper":888,"Ġbel":889,"Ġboth":890,"Ġlar":891,"ague":892,"Ġnumber":893,"Ġyears":894,"ten":895,"ily":896,"Ġseveral":897,"ined":898,"Ġegy":899,"Ġegypt":900,"air":901,"ug":902,"Ġback":903,"Ġ198":904,"Ġent":905,"Ġday":906,"tern":907,"Ġused":908,"Ġnorth":909,"Ġantimony":910,"ating":911,"Ġstud":912,"Ġ191":913,"Ġeng":914,"Ġearly":915,"Ġremain":916,"ood":917,"hes":918,"ived":919,"Ġchrist":920,"ific":921,"ual":922,"Ġwell":923,"Ġfur":924,"Ġinv":925,"row":926,"Ġlo":927,"Ġ194":928,"orn":929,"Ġprom":930,"ists":931,"Ġed":932,"eric":933,"Ġgu":934,"elf":935,"Ġbecame":936,"ield":937,"ral":938,"Ġlit":939,"Ġdec":940,"Ġleague":941,"Ġadd":942,"ba":943,"Ġtran":944,"ale":945,"Ġstate":946,"Ġmark":947,"Ġbegan":948,"Ġval":949,"Ġrock":950,"Ġdisc":951,"Ġtrans":952,"ert":953,"Ġsl":954,"Ġclass":955,"ool":956,"its":957,"Ġmov":958,"Ġdesc":959,"ball":960,"Ġbest":961,"Ġdif":962,"Ġoffic":963,"Ġcould":964,"ars":965,"ty":966,"Ġcre":967,"Ġgold":968,"Ġcharact":969,"und":970,"ve":971,"Ġrece":972,"other":973,"Ġfey":974,"Ġpublic":975,"Ġest":976,"Ġreleased":977,"Ġagainst":978,"Ġsouth":979,"Ġcrit":980,"emb":981,"pect":982,"Ġunited":983,"ever":984,"Ġwin":985,"Ġmain":986,"ics":987,"Ġloc":988,"Ġknown":989,"Ġtru":990,"Ġown":991,"Ġbas":992,"ision":993,"osed":994,"ored":995,"ife":996,"ci":997,"oot":998,"Ġset":999,"Ġord":1000,"Ġpoint":1001,"ky":1002,"ures":1003,"Ġport":1004,"Ġcareer":1005,"Ġcall":1006,"Ġ192":1007,"Ġgover":1008,"ized":1009,"Ġschool":1010,"craft":1011,"Ġcity":1012,"Ġfound":1013,"Ġinf":1014,"ise":1015,"Ġhum":1016,"amed":1017,"Ġfeat":1018,"Ġameric":1019,"Ġorig":1020,"Ġhowever":1021,"io":1022,"ery":1023,"Ġthough":1024,"ele":1025,"Ġ193":1026,"Ġexp":1027,"Ġdesign":1028,"Ġaircraft":1029,"Ġreturn":1030,"ared":1031,"ident":1032,"Ġincluding":1033,"Ġgovern":1034,"rum":1035,"Ġter":1036,"ank":1037,"ional":1038,"ury":1039,"Ġlike":1040,"ah":1041,"ier":1042,"Ġmil":1043,"Ġconst":1044,"Ġop":1045,"Ġmill":1046,"ided":1047,"Ġhistory":1048,"Ġorigin":1049,"ism":1050,"rol":1051,"Ġste":1052,"ccess":1053,"Ġcontin":1054,"Ġstar":1055,"ract":1056,"Ġfollowing":1057,"hn":1058,"mas":1059,"ines":1060,"Ġpop":1061,"elop":1062,"Ġplan":1063,"aking":1064,"roup":1065,"Ġseries":1066,"Ġdevelop":1067,"Ġ10":1068,"Ġdeities":1069,"Ġnear":1070,"are":1071,"ues":1072,"ather":1073,"Ġdoll":1074,"Ġnational":1075,"use":1076,"ued":1077,"Ġgroup":1078,"ĠĠĠĠ":1079,"Ġproject":1080,"Ġexc":1081,"Ġegyptian":1082,"cial":1083,"ek":1084,"port":1085,"ton":1086,"ured":1087,"Ġga":1088,"Ġgames":1089,"Ġ15":1090,"ural":1091,"Ġreport":1092,"Ġbook":1093,"Ġdescrib":1094,"Ġfran":1095,"Ġbr":1096,"Ġbar":1097,"Ġmy":1098,"Ġhome":1099,"Ġeach":1100,"ets":1101,"osa":1102,"Ġsmall":1103,"ful":1104,"Ġsim":1105,"Ġsix":1106,"Ġpar":1107,"Ġpost":1108,"Ġins":1109,"Ġmat":1110,"Ġgre":1111,"Ġstart":1112,"Ġhead":1113,"ivers":1114,"Ġdem":1115,"Ġshow":1116,"Ġsuccess":1117,"Ġrepres":1118,"Ġspecies":1119,"Ġbuild":1120,"Ġgeneral":1121,"Ġaut":1122,"Ġcult":1123,"Ġgun":1124,"omin":1125,"Ġjun":1126,"Ġpeop":1127,"Ġsupport":1128,"Ġsoc":1129,"Ġocc":1130,"Ġfle":1131,"Ġmed":1132,"Ġdown":1133,"Ġgr":1134,"Ġjohn":1135,"Ġnovember":1136,"Ġchristmas":1137,"oy":1138,"uc":1139,"Ġthir":1140,"cept":1141,"Ġany":1142,"athan":1143,"ince":1144,"Ġsqu":1145,"Ġhal":1146,"ross":1147,"Ġstates":1148,"Ġalong":1149,"Ġplayed":1150,"Ġii":1151,"Ġprev":1152,"ne":1153,"ting":1154,"Ġsame":1155,"Ġfam":1156,"Ġfive":1157,"Ġdist":1158,"Ġtop":1159,"Ġ12":1160,"Ġross":1161,"Ġpeople":1162,"Ġhy":1163,"Ġnathan":1164,"Ġgreat":1165,"eter":1166,"Ġchild":1167,"Ġresult":1168,"gg":1169,"ium":1170,"Ġoct":1171,"ime":1172,"ides":1173,"Ġjan":1174,"Ġking":1175,"ctions":1176,"rang":1177,"Ġmaj":1178,"Ġlittle":1179,"Ġperson":1180,"Ġlist":1181,"ution":1182,"Ġ2013":1183,"Ġsaid":1184,"Ġmillion":1185,"ground":1186,"Ġav":1187,"Ġwill":1188,"Ġdid":1189,"Ġanother":1190,"aves":1191,"ments":1192,"Ġcolle":1193,"hl":1194,"Ġcount":1195,"Ġpower":1196,"Ġgl":1197,"Ġhel":1198,"emp":1199,"Ġ30":1200,"Ġcommand":1201,"Ġdiffer":1202,"Ġer":1203,"Ġopen":1204,"ned":1205,"Ġwest":1206,"ative":1207,"Ġvide":1208,"Ġiss":1209,"pped":1210,"Ġcomple":1211,"Ġpartic":1212,"Ġreceived":1213,"Ġcalled":1214,"Ġrepresent":1215,"ai":1216,"Ġpat":1217,"Ġmiss":1218,"Ġge":1219,"iva":1220,"iety":1221,"Ġaddition":1222,"ober":1223,"ril":1224,"Ġdam":1225,"Ġnamed":1226,"Ġgiv":1227,"ilt":1228,"ility":1229,"cted":1230,"Ġ195":1231,"aged":1232,"Ġleft":1233,"ible":1234,"Ġexcav":1235,"Ġoctober":1236,"ually":1237,"Ġty":1238,"Ġpur":1239,"Ġnba":1240,"Ġheav":1241,"Ġshiva":1242,"Ġroute":1243,"Ġorgan":1244,"ruction":1245,"ogra":1246,"Ġserv":1247,"Ġconsid":1248,"Ġred":1249,"Ġ11":1250,"ement":1251,"Ġsyn":1252,"field":1253,"Ġaug":1254,"Ġhand":1255,"Ġel":1256,"Ġsev":1257,"Ġprop":1258,"Ġyoun":1259,"illo":1260,"Ġunivers":1261,"Ġindia":1262,"Ġapril":1263,"Ġdescribed":1264,"Ġyoung":1265,"Ġmu":1266,"Ġ17":1267,"Ġplace":1268,"Ġsingle":1269,"Ġtruj":1270,"Ġrom":1271,"Ġaust":1272,"Ġsince":1273,"Ġfoot":1274,"Ġ13":1275,"Ġstru":1276,"Ġann":1277,"Ġ2007":1278,"Ġbelie":1279,"Ġcharacter":1280,"Ġinfl":1281,"Ġmajor":1282,"Ġtrujillo":1283,"cess":1284,"ew":1285,"ones":1286,"Ġmad":1287,"Ġuse":1288,"Ġdece":1289,"Ġ197":1290,"Ġchart":1291,"ained":1292,"Ġclub":1293,"aced":1294,"Ġappear":1295,"Ġthird":1296,"ause":1297,"ee":1298,"ki":1299,"ash":1300,"Ġtook":1301,"Ġshort":1302,"Ġeven":1303,"Ġactiv":1304,"Ġappro":1305,"Ġamerican":1306,"Ġsk":1307,"Ġwom":1308,"els":1309,"ots":1310,"Ġconf":1311,"ified":1312,"Ġperform":1313,"Ġrelease":1314,"Ġreview":1315,"Ġaugust":1316,"au":1317,"mber":1318,"ris":1319,"uro":1320,"xt":1321,"Ġlife":1322,"Ġeast":1323,"Ġeff":1324,"Ġasso":1325,"Ġincluded":1326,"Ġweek":1327,"Ġincre":1328,"Ġsquad":1329,"Ġdecember":1330,"Ġassoci":1331,"uary":1332,"Ġopp":1333,"Ġfun":1334,"Ġmod":1335,"Ġdest":1336,"Ġstra":1337,"Ġjust":1338,"Ġprof":1339,"ove":1340,"Ġlarg":1341,"Ġgovernment":1342,"Ġvideo":1343,"get":1344,"iod":1345,"Ġsap":1346,"Ġway":1347,"enn":1348,"Ġthose":1349,"Ġever":1350,"Ġprov":1351,"ards":1352,"Ġbecause":1353,"Ġtrad":1354,"Ġhuman":1355,"co":1356,"gra":1357,"read":1358,"Ġmor":1359,"ange":1360,"Ġwithin":1361,"uss":1362,"Ġ2006":1363,"ically":1364,"Ġplayer":1365,"Ġposition":1366,"Ġtemp":1367,"Ġaround":1368,"ina":1369,"Ġbased":1370,"Ġanderson":1371,"Ġlight":1372,"Ġname":1373,"ently":1374,"Ġstand":1375,"Ġright":1376,"ially":1377,"Ġperiod":1378,"Ġtrack":1379,"Ġarmy":1380,"Ġbattle":1381,"Ġdollar":1382,"Ġjune":1383,"Ġhalf":1384,"ls":1385,"til":1386,"Ġtri":1387,"ining":1388,"Ġsite":1389,"ret":1390,"Ġpass":1391,"arch":1392,"Ġtot":1393,"Ġnav":1394,"used":1395,"Ġconc":1396,"Ġyou":1397,"Ġcontrol":1398,"Ġships":1399,"bo":1400,"eum":1401,"Ġsal":1402,"reak":1403,"Ġwon":1404,"Ġbull":1405,"Ġdel":1406,"Ġlast":1407,"ively":1408,"Ġsept":1409,"Ġrun":1410,"abl":1411,"Ġgoal":1412,"tend":1413,"Ġmonum":1414,"Ġfleet":1415,"ring":1416,"sen":1417,"erv":1418,"Ġche":1419,"Ġcal":1420,"ane":1421,"Ġlos":1422,"Ġadv":1423,"Ġmuseum":1424,"Ġaccord":1425,"Ġdirector":1426,"Ġmilit":1427,"Ġinflu":1428,"Ġsaprang":1429,"Ġseptember":1430,"sh":1431,"self":1432,"Ġaway":1433,"Ġcour":1434,"ately":1435,"Ġrest":1436,"Ġnow":1437,"Ġeas":1438,"Ġuk":1439,"Ġbuilt":1440,"osaur":1441,"Ġprevious":1442,"mb":1443,"over":1444,"Ġsound":1445,"Ġcor":1446,"Ġpress":1447,"rote":1448,"Ġnat":1449,"Ġeuro":1450,"ention":1451,"ado":1452,"Ġisland":1453,"aving":1454,"Ġbuilding":1455,"Ġauth":1456,"Ġfamily":1457,"Ġaccording":1458,"off":1459,"yal":1460,"Ġtele":1461,"Ġaer":1462,"ink":1463,"Ġsit":1464,"Ġfly":1465,"Ġfig":1466,"Ġpil":1467,"roy":1468,"Ġland":1469,"ley":1470,"Ġsugg":1471,"Ġrole":1472,"Ġblack":1473,"Ġproduced":1474,"Ġthroughout":1475,"Ġestabl":1476,"Ġmuch":1477,"Ġsuggest":1478,"ram":1479,"hen":1480,"Ġsw":1481,"Ġwrote":1482,"Ġband":1483,"Ġhol":1484,"Ġla":1485,"Ġjack":1486,"pted":1487,"ected":1488,"Ġtimes":1489,"Ġcommer":1490,"Ġfinal":1491,"Ġinstit":1492,"Ġobs":1493,"Ġorder":1494,"Ġjanuary":1495,"ograph":1496,"con":1497,"ged":1498,"Ġmid":1499,"Ġmag":1500,"Ġlow":1501,"Ġline":1502,"Ġuntil":1503,"Ġarea":1504,"ached":1505,"Ġperfor":1506,"Ġdesp":1507,"Ġfurther":1508,"Ġmilitary":1509,"Ġperforman":1510,"ble":1511,"side":1512,"Ġir":1513,"Ġsb":1514,"oring":1515,"Ġinit":1516,"Ġdue":1517,"Ġled":1518,"Ġlim":1519,"Ġlond":1520,"ulf":1521,"Ġchur":1522,"ria":1523,"ants":1524,"Ġpolit":1525,"Ġ2010":1526,"Ġmonth":1527,"Ġpublished":1528,"Ġarchaeology":1529,"Ġarchaeological":1530,"Ġpresent":1531,"Ġpromot":1532,"Ġoriginal":1533,"Ġdifferent":1534,"Ġlondon":1535,"ford":1536,"Ġtre":1537,"Ġtro":1538,"Ġsol":1539,"Ġcame":1540,"Ġbill":1541,"ene":1542,"Ġmake":1543,"Ġoften":1544,"Ġreal":1545,"ouse":1546,"Ġbeh":1547,"Ġdeb":1548,"Ġwhat":1549,"Ġ196":1550,"Ġcommun":1551,"Ġresp":1552,"Ġattem":1553,"Ġhelp":1554,"Ġsquadron":1555,"ner":1556,"Ġold":1557,"Ġcat":1558,"Ġcir":1559,"Ġtow":1560,"Ġ14":1561,"omet":1562,"Ġstated":1563,"Ġheld":1564,"Ġali":1565,"Ġ25":1566,"Ġvis":1567,"ption":1568,"Ġ2011":1569,"Ġindian":1570,"Ġ186":1571,"Ġoperations":1572,"Ġpoints":1573,"Ġeurope":1574,"gal":1575,"oint":1576,"tado":1577,"Ġif":1578,"Ġstr":1579,"Ġstat":1580,"uted":1581,"Ġprot":1582,"pping":1583,"Ġscored":1584,"Ġrelig":1585,"Ġawards":1586,"Ġfurtado":1587,"Ġmarkgra":1588,"embers":1589,"Ġroman":1590,"Ġmarkgraf":1591,"aim":1592,"Ġes":1593,"Ġref":1594,"Ġep":1595,"olay":1596,"Ġju":1597,"Ġsholay":1598,"Ġnoted":1599,"Ġrepl":1600,"Ġrecorded":1601,"Ġunderground":1602,"Ġcolum":1603,"Ġprim":1604,"Ġimport":1605,"Ġmarch":1606,"Ġinvol":1607,"Ġparticular":1608,"Ġgiven":1609,"Ġcommercial":1610,"Ġdespite":1611,"vel":1612,"Ġturn":1613,"Ġwal":1614,"Ġpa":1615,"Ġlab":1616,"Ġrequ":1617,"Ġsty":1618,"Ġnext":1619,"ried":1620,"Ġallow":1621,"ront":1622,"Ġsongs":1623,"Ġsigned":1624,"Ġchurch":1625,"iqu":1626,"ms":1627,"med":1628,"Ġfem":1629,"Ġfather":1630,"Ġbod":1631,"Ġmembers":1632,"Ġdra":1633,"Ġlate":1634,"amb":1635,"Ġvers":1636,"ages":1637,"Ġext":1638,"Ġblue":1639,"Ġproduction":1640,"Ġsurv":1641,"Ġlocal":1642,"Ġsociety":1643,"Ġcirc":1644,"ob":1645,"Ġur":1646,"Ġbase":1647,"ann":1648,"ilar":1649,"adem":1650,"Ġseen":1651,"Ġvi":1652,"Ġacadem":1653,"rent":1654,"ertain":1655,"bru":1656,"iation":1657,"ka":1658,"ox":1659,"Ġcoll":1660,"Ġfore":1661,"Ġfree":1662,"atic":1663,"eng":1664,"ences":1665,"Ġnight":1666,"Ġeat":1667,"Ġ16":1668,"ott":1669,"Ġjew":1670,"Ġdeath":1671,"Ġconv":1672,"Ġkm":1673,"Ġamong":1674,"Ġlarge":1675,"Ġvalky":1676,"Ġmoved":1677,"Ġreturned":1678,"Ġwomen":1679,"Ġprofess":1680,"Ġtower":1681,"cy":1682,"Ġcamp":1683,"ator":1684,"atory":1685,"Ġpra":1686,"Ġhock":1687,"stem":1688,"Ġ21":1689,"ister":1690,"isted":1691,"Ġcomed":1692,"Ġnever":1693,"Ġfebru":1694,"Ġsimilar":1695,"Ġfebruary":1696,"dom":1697,"ves":1698,"ying":1699,"Ġcur":1700,"Ġcru":1701,"Ġcap":1702,"Ġcup":1703,"ania":1704,"Ġnhl":1705,"Ġequ":1706,"Ġ2008":1707,"Ġ2009":1708,"Ġformer":1709,"Ġsystem":1710,"Ġdepart":1711,"Ġconsidered":1712,"Ġauthor":1713,"ling":1714,"vision":1715,"Ġtak":1716,"Ġsen":1717,"Ġwater":1718,"Ġft":1719,"Ġpri":1720,"Ġlive":1721,"Ġeight":1722,"Ġforces":1723,"Ġ24":1724,"Ġplayers":1725,"Ġ2012":1726,"Ġbritain":1727,"Ġdivine":1728,"Ġconstruction":1729,"Ġuniversity":1730,"osaurus":1731,"Ġhockey":1732,"ez":1733,"Ġsold":1734,"ara":1735,"ances":1736,"Ġhaving":1737,"Ġrad":1738,"Ġpolice":1739,"Ġcontract":1740,"Ġgoals":1741,"Ġbulls":1742,"Ġeaton":1743,"action":1744,"ny":1745,"Ġtor":1746,"orm":1747,"Ġmas":1748,"Ġmem":1749,"Ġhun":1750,"Ġbeg":1751,"ĠĠĠĠĠ":1752,"Ġarsen":1753,"Ġexper":1754,"oviet":1755,"Ġcover":1756,"ission":1757,"Ġpresident":1758,"Ġposs":1759,"Ġvarious":1760,"Ġpopular":1761,"Ġreported":1762,"Ġvalkyria":1763,"ael":1764,"cer":1765,"ched":1766,"ead":1767,"ps":1768,"hest":1769,"ero":1770,"Ġsoviet":1771,"Ġpit":1772,"Ġhouse":1773,"umm":1774,"Ġroyal":1775,"Ġexpl":1776,"Ġadm":1777,"Ġ2014":1778,"Ġcommon":1779,"Ġcapt":1780,"Ġhimself":1781,"Ġintern":1782,"ferred":1783,"hips":1784,"Ġcanad":1785,"Ġmetal":1786,"Ġphil":1787,"Ġhistor":1788,"Ġcritic":1789,"Ġkingdom":1790,"Ġcountry":1791,"ec":1792,"iam":1793,"uals":1794,"yl":1795,"Ġtit":1796,"Ġsay":1797,"rew":1798,"Ġox":1799,"Ġcou":1800,"Ġfif":1801,"Ġfru":1802,"Ġmint":1803,"Ġden":1804,"Ġhit":1805,"ices":1806,"Ġgir":1807,"enth":1808,"Ġstill":1809,"Ġstory":1810,"Ġsun":1811,"Ġcoach":1812,"Ġfilms":1813,"ploy":1814,"Ġcontinued":1815,"Ġexcavation":1816,"af":1817,"Ġtake":1818,"Ġsent":1819,"Ġcold":1820,"Ġfront":1821,"ats":1822,"Ġmer":1823,"Ġhig":1824,"Ġgra":1825,"omb":1826,"Ġwithout":1827,"Ġdeal":1828,"ulation":1829,"istic":1830,"Ġvoc":1831,"Ġshould":1832,"Ġclark":1833,"arker":1834,"Ġcentral":1835,"Ġcentury":1836,"Ġeduc":1837,"Ġfootball":1838,"Ġdestroy":1839,"Ġcolumb":1840,"ha":1841,"Ġsil":1842,"Ġcull":1843,"Ġfair":1844,"Ġbus":1845,"arian":1846,"Ġmater":1847,"estern":1848,"Ġdet":1849,"rop":1850,"Ġstones":1851,"ives":1852,"ival":1853,"iving":1854,"Ġcome":1855,"sequ":1856,"Ġroad":1857,"Ġfew":1858,"itions":1859,"Ġupon":1860,"Ġrecords":1861,"Ġappoint":1862,"Ġinstead":1863,"Ġoccup":1864,"Ġchildren":1865,"Ġassociation":1866,"Ġflying":1867,"Ġjuly":1868,"Ġsan":1869,"Ġsomet":1870,"Ġwind":1871,"Ġfern":1872,"ata":1873,"ison":1874,"Ġmen":1875,"Ġhour":1876,"ctor":1877,"Ġforce":1878,"ayer":1879,"Ġattend":1880,"play":1881,"Ġleading":1882,"Ġdays":1883,"Ġdeveloped":1884,"Ġbehind":1885,"Ġfernand":1886,"hib":1887,"ket":1888,"sp":1889,"ving":1890,"xim":1891,"Ġide":1892,"Ġage":1893,"Ġsel":1894,"Ġside":1895,"Ġciv":1896,"Ġcut":1897,"enced":1898,"Ġmich":1899,"Ġhold":1900,"icles":1901,"Ġonce":1902,"Ġvict":1903,"Ġchron":1904,"ief":1905,"Ġscoring":1906,"Ġplayoff":1907,"Ġmanag":1908,"ize":1909,"Ġalbums":1910,"Ġbecome":1911,"Ġearl":1912,"Ġspecial":1913,"Ġacross":1914,"ensive":1915,"Ġattack":1916,"Ġbatt":1917,"Ġguns":1918,"Ġevery":1919,"Ġstrong":1920,"Ġclarkson":1921,"Ġcivil":1922,"cing":1923,"hing":1924,"hod":1925,"ik":1926,"ination":1927,"Ġwant":1928,"eder":1929,"Ġcr":1930,"Ġcro":1931,"Ġcaves":1932,"Ġfire":1933,"ital":1934,"ither":1935,"ico":1936,"Ġless":1937,"Ġ100":1938,"ithic":1939,"ivid":1940,"Ġ190":1941,"Ġkill":1942,"Ġshot":1943,"pend":1944,"anta":1945,"Ġpoland":1946,"Ġindivid":1947,"Ġrecording":1948,"Ġearth":1949,"Ġflight":1950,"Ġtraining":1951,"Ġpriv":1952,"Ġsubm":1953,"Ġwritten":1954,"Ġpersonal":1955,"Ġcommander":1956,"Ġstruck":1957,"Ġactivities":1958,"Ġeastern":1959,"Ġjackets":1960,"Ġperformance":1961,"Ġimportant":1962,"Ġcullen":1963,"Ġmaterial":1964,"ient":1965,"Ġten":1966,"ering":1967,"Ġsumm":1968,"Ġwestern":1969,"Ġfar":1970,"Ġfac":1971,"Ġfren":1972,"Ġbarker":1973,"Ġpers":1974,"ened":1975,"aries":1976,"Ġstation":1977,"Ġstone":1978,"Ġ23":1979,"Ġcompet":1980,"Ġevent":1981,"Ġevents":1982,"Ġinterest":1983,"Ġwriting":1984,"Ġsignific":1985,"Ġiii":1986,"Ġaustral":1987,"by":1988,"eal":1989,"par":1990,"work":1991,"iness":1992,"Ġcave":1993,"Ġcreat":1994,"Ġfund":1995,"itted":1996,"Ġput":1997,"Ġnort":1998,"Ġstre":1999,"Ġdecl":2000,"Ġsex":2001,"Ġital":2002,"Ġprog":2003,"bert":2004,"Ġindust":2005,"Ġairport":2006,"ounds":2007,"Ġrelations":2008,"Ġdiscover":2009,"Ġbasket":2010,"Ġsuccessful":2011,"Ġhyg":2012,"Ġmadero":2013,"Ġtelevision":2014,"Ġstyle":2015,"Ġfemale":2016,"Ġfrench":2017,"ca":2018,"ham":2019,"line":2020,"Ġill":2021,"Ġborn":2022,"Ġpot":2023,"Ġdr":2024,"Ġly":2025,"Ġreached":2026,"Ġgave":2027,"Ġstri":2028,"rag":2029,"iver":2030,"Ġjames":2031,"odrom":2032,"Ġround":2033,"Ġunion":2034,"ogue":2035,"Ġclaim":2036,"Ġallosaurus":2037,"Ġplaying":2038,"Ġoperation":2039,"Ġcharacters":2040,"Ġbelieved":2041,"Ġeffect":2042,"Ġtradition":2043,"Ġaerodrom":2044,"Ġarsenal":2045,"..":2046,"ior":2047,"less":2048,"ski":2049,"Ġident":2050,"Ġtreat":2051,"Ġsn":2052,"Ġson":2053,"ont":2054,"Ġcle":2055,"Ġfav":2056,"iting":2057,"Ġmaking":2058,"Ġdraft":2059,"Ġhill":2060,"Ġtomb":2061,"imes":2062,"iding":2063,"Ġve":2064,"Ġsuff":2065,"riend":2066,"ians":2067,"igned":2068,"Ġsecret":2069,"Ġregular":2070,"rict":2071,"Ġrevol":2072,"Ġsubst":2073,"Ġsubsequ":2074,"Ġbroad":2075,"Ġremained":2076,"Ġthought":2077,"Ġdamage":2078,"Ġinstitute":2079,"Ġcomedy":2080,"Ġcoldrum":2081,"Ġfernandez":2082,"aff":2083,"bar":2084,"ches":2085,"ll":2086,"ness":2087,"rated":2088,"vers":2089,"Ġsave":2090,"Ġsulf":2091,"Ġwra":2092,"Ġ...":2093,"Ġbur":2094,"iser":2095,"Ġlat":2096,"idence":2097,"utes":2098,"Ġang":2099,"Ġcomb":2100,"Ġexamp":2101,"ourn":2102,"Ġcoin":2103,"Ġcoins":2104,"Ġ50":2105,"Ġothers":2106,"Ġfinished":2107,"Ġregime":2108,"ference":2109,"Ġcarol":2110,"Ġphot":2111,"Ġtransport":2112,"Ġcreated":2113,"Ġbarrow":2114,"Ġstarted":2115,"Ġaviation":2116,"Ġtotal":2117,"Ġnavy":2118,"Ġmonument":2119,"Ġobserv":2120,"Ġattempt":2121,"Ġviol":2122,"Ġcolumbus":2123,"Ġappointed":2124,"Ġprivate":2125,"ike":2126,"Ġaction":2127,"reed":2128,"Ġwife":2129,"Ġmm":2130,"Ġdomin":2131,"Ġhor":2132,"elt":2133,"ett":2134,"Ġshown":2135,"aint":2136,"Ġleast":2137,"ably":2138,"Ġfeet":2139,"aps":2140,"aper":2141,"Ġappl":2142,"Ġarchaeologist":2143,"Ġimpro":2144,"Ġnovel":2145,"Ġdecided":2146,"Ġdevelopment":2147,"Ġtype":2148,"Ġperformed":2149,"Ġpolitical":2150,"Ġversion":2151,"Ġchronicles":2152,"Ġbasketball":2153,"Ġwrapped":2154,"com":2155,"ken":2156,"Ġaver":2157,"Ġwent":2158,"Ġpie":2159,"Ġinform":2160,"Ġmass":2161,"Ġmix":2162,"ros":2163,"Ġreaction":2164,"Ġjourn":2165,"Ġshr":2166,"Ġneed":2167,"Ġleg":2168,"Ġ2015":2169,"Ġgood":2170,"Ġ188":2171,"Ġblock":2172,"Ġjoined":2173,"Ġremains":2174,"Ġcultural":2175,"augh":2176,"Ġloss":2177,"Ġestablished":2178,"Ġacademy":2179,"Ġprofessional":2180,"app":2181,"ience":2182,"ship":2183,"Ġtur":2184,"Ġwol":2185,"Ġfail":2186,"ators":2187,"Ġball":2188,"Ġbreak":2189,"Ġdou":2190,"Ġhon":2191,"Ġhall":2192,"Ġhost":2193,"Ġtoo":2194,"ican":2195,"Ġgrow":2196,"iday":2197,"Ġatl":2198,"Ġvol":2199,"ander":2200,"ops":2201,"ogn":2202,"Ġrecogn":2203,"elling":2204,"Ġ40":2205,"Ġcompan":2206,"ought":2207,"Ġ187":2208,"Ġmean":2209,"ressed":2210,"Ġinterv":2211,"Ġaccept":2212,"Ġfollowed":2213,"Ġdefe":2214,"Ġappeared":2215,"ended":2216,"Ġofficers":2217,"Ġdamaged":2218,"Ġpurp":2219,"Ġholiday":2220,"Ġiron":2221,"Ġjewish":2222,"Ġbegin":2223,"Ġfruit":2224,"day":2225,"hy":2226,"me":2227,"Ġfoc":2228,"Ġfriend":2229,"isc":2230,"Ġmo":2231,"Ġmember":2232,"asing":2233,"Ġhar":2234,"Ġlost":2235,"Ġread":2236,"Ġnar":2237,"ament":2238,"Ġstaff":2239,"chn":2240,"Ġ22":2241,"Ġvery":2242,"Ġrich":2243,"Ġsuper":2244,"Ġark":2245,"duced":2246,"Ġusing":2247,"Ġfinals":2248,"Ġformed":2249,"Ġregion":2250,"Ġoutside":2251,"rick":2252,"Ġminute":2253,"Ġschools":2254,"Ġinsp":2255,"Ġmatch":2256,"Ġtyp":2257,"Ġheavy":2258,"Ġseven":2259,"board":2260,"Ġlimited":2261,"Ġcommunity":2262,"Ġinternational":2263,"dess":2264,"fic":2265,"iers":2266,"mi":2267,"my":2268,"wood":2269,"Ġast":2270,"Ġword":2271,"Ġcm":2272,"Ġfield":2273,"ories":2274,"Ġdar":2275,"Ġhard":2276,"Ġhop":2277,"Ġlad":2278,"Ġnomin":2279,"Ġthak":2280,"olithic":2281,"omp":2282,"Ġwhite":2283,"Ġvill":2284,"Ġlevel":2285,"abbar":2286,"Ġclos":2287,"thern":2288,"ways":2289,"Ġminor":2290,"Ġsouthern":2291,"Ġofficial":2292,"Ġestim":2293,"Ġculture":2294,"Ġfigure":2295,"Ġreligious":2296,"Ġbody":2297,"Ġdraw":2298,"Ġurania":2299,"Ġtaken":2300,"nyi":2301,"Ġmichael":2302,"Ġearlier":2303,"Ġbattles":2304,"Ġsignificant":2305,"bc":2306,"bon":2307,"han":2308,"ipp":2309,"ked":2310,"Ġta":2311,"het":2312,"Ġcast":2313,"Ġcase":2314,"Ġfell":2315,"Ġfrag":2316,"Ġpen":2317,"ising":2318,"Ġdav":2319,"Ġtour":2320,"Ġll":2321,"Ġget":2322,"Ġeither":2323,"ster":2324,"chan":2325,"utive":2326,"Ġrange":2327,"Ġshoot":2328,"ortun":2329,"Ġclosed":2330,"Ġaff":2331,"Ġtwent":2332,"Ġ2003":2333,"Ġ2004":2334,"Ġ2005":2335,"Ġpolic":2336,"Ġ44":2337,"Ġabove":2338,"Ġcommission":2339,"ization":2340,"Ġbecom":2341,"Ġinclude":2342,"Ġcenter":2343,"Ġschol":2344,"Ġsoon":2345,"Ġloose":2346,"Ġamerica":2347,"Ġdebut":2348,"Ġprimary":2349,"Ġprior":2350,"Ġeducation":2351,"Ġrevolution":2352,"der":2353,"gas":2354,"nes":2355,"yn":2356,"Ġsaves":2357,"Ġcop":2358,"Ġbi":2359,"Ġbra":2360,"Ġpast":2361,"Ġmult":2362,"Ġtoward":2363,"Ġtoget":2364,"Ġstorm":2365,"idge":2366,"Ġanim":2367,"Ġview":2368,"Ġcondu":2369,"romet":2370,"Ġrul":2371,"Ġrank":2372,"Ġprob":2373,"Ġclose":2374,"Ġ35":2375,"Ġable":2376,"Ġrepubl":2377,"Ġinde":2378,"Ġregard":2379,"Ġanti":2380,"Ġworks":2381,"rought":2382,"Ġtrade":2383,"Ġofficer":2384,"Ġcritical":2385,"Ġlocated":2386,"Ġoriginally":2387,"Ġissue":2388,"Ġservice":2389,"Ġsynag":2390,"Ġcourt":2391,"Ġpilot":2392,"Ġinitially":2393,"Ġdepartment":2394,"Ġhung":2395,"Ġgirls":2396,"Ġsubmar":2397,"Ġtogether":2398,"cher":2399,"ev":2400,"ii":2401,"Ġtest":2402,"Ġsat":2403,"Ġwall":2404,"Ġfull":2405,"Ġbrought":2406,"itive":2407,"Ġpan":2408,"Ġinj":2409,"Ġinch":2410,"Ġdu":2411,"icated":2412,"Ġreag":2413,"Ġrese":2414,"Ġgar":2415,"amber":2416,"Ġul":2417,"Ġchamp":2418,"Ġchamber":2419,"Ġruss":2420,"Ġriver":2421,"Ġprocess":2422,"ains":2423,"aining":2424,"ores":2425,"Ġexist":2426,"pper":2427,"abor":2428,"ishing":2429,"Ġ31":2430,"elled":2431,"Ġintro":2432,"Ġimage":2433,"ology":2434,"Ġmegal":2435,"Ġevidence":2436,"Ġspecim":2437,"Ġreveal":2438,"Ġsurround":2439,"Ġemploy":2440,"Ġdevin":2441,"Ġgermany":2442,"Ġdesigned":2443,"Ġterrit":2444,"Ġannoun":2445,"Ġnature":2446,"Ġsuggested":2447,"Ġbillboard":2448,"Ġcoup":2449,"Ġsilver":2450,"Ġbusiness":2451,"Ġaustralia":2452,"Ġhygromet":2453,"Ġsynagogue":2454,"Ġhygrometric":2455,"na":2456,"ped":2457,"vat":2458,"Ġtaking":2459,"inent":2460,"Ġself":2461,"onst":2462,"Ġfelt":2463,"Ġbomb":2464,"Ġpick":2465,"Ġmc":2466,"Ġmot":2467,"ana":2468,"Ġlove":2469,"Ġgabbar":2470,"rack":2471,"Ġram":2472,"Ġplaced":2473,"sec":2474,"Ġperm":2475,"Ġ45":2476,"Ġtechn":2477,"Ġcoast":2478,"Ġgoddess":2479,"Ġrespect":2480,"Ġhighway":2481,"angu":2482,"Ġlook":2483,"Ġguard":2484,"Ġslayer":2485,"Ġdiffic":2486,"Ġwinning":2487,"Ġfeatures":2488,"Ġoccur":2489,"Ġcompleted":2490,"Ġgeor":2491,"Ġappearance":2492,"Ġshortly":2493,"Ġstrapping":2494,"Ġlarger":2495,"Ġmonuments":2496,"Ġblackie":2497,"ography":2498,"Ġtroops":2499,"Ġinvolved":2500,"Ġparticularly":2501,"Ġsurvey":2502,"Ġwolf":2503,"Ġhygrometricus":2504,"vati":2505,"Ġdifficult":2506,"br":2507,"har":2508,"Ġtar":2509,"Ġaud":2510,"Ġwat":2511,"Ġcer":2512,"Ġcred":2513,"Ġcoun":2514,"Ġfact":2515,"Ġbru":2516,"Ġpow":2517,"Ġmach":2518,"Ġdied":2519,"Ġlack":2520,"Ġlangu":2521,"Ġnames":2522,"Ġthings":2523,"elph":2524,"adelph":2525,"Ġdeity":2526,"Ġsea":2527,"Ġwhom":2528,"ulated":2529,"istics":2530,"Ġconn":2531,"Ġconference":2532,"Ġchang":2533,"agre":2534,"Ġrit":2535,"Ġsha":2536,"rie":2537,"Ġ2002":2538,"Ġserved":2539,"ibility":2540,"Ġ1990":2541,"Ġworked":2542,"Ġfourth":2543,"Ġqual":2544,"Ġvargas":2545,"Ġstudio":2546,"Ġcrew":2547,"Ġfeature":2548,"Ġbooks":2549,"Ġmyth":2550,"Ġparvati":2551,"Ġgreater":2552,"Ġincreasing":2553,"Ġmodern":2554,"Ġfifth":2555,"Ġstreet":2556,"Ġsnl":2557,"Ġjournal":2558,"Ġbeginning":2559,"Ġllosa":2560,"Ġresearch":2561,"Ġchampions":2562,"adelphia":2563,"bers":2564,"lish":2565,"most":2566,"ns":2567,"ration":2568,"rest":2569,"Ġcertain":2570,"Ġfer":2571,"Ġpal":2572,"ency":2573,"ald":2574,"Ġdi":2575,"Ġdaz":2576,"Ġlic":2577,"Ġnine":2578,"Ġthus":2579,"Ġey":2580,"ille":2581,"ilities":2582,"ential":2583,"Ġ28":2584,"Ġanal":2585,"Ġver":2586,"Ġcond":2587,"Ġkur":2588,"Ġkee":2589,"Ġru":2590,"Ġcomment":2591,"akes":2592,"Ġ500":2593,"Ġ185":2594,"Ġ189":2595,"Ġfind":2596,"Ġmeet":2597,"Ġteams":2598,"Ġarchit":2599,"Ġcharles":2600,"Ġassass":2601,"Ġeleph":2602,"Ġdivision":2603,"Ġobject":2604,"Ġdoes":2605,"Ġstudents":2606,"Ġengland":2607,"Ġliter":2608,"Ġnearly":2609,"Ġegyptians":2610,"Ġshows":2611,"Ġsocial":2612,"Ġgreatest":2613,"Ġavail":2614,"Ġadditional":2615,"Ġopportun":2616,"Ġlargely":2617,"Ġprotest":2618,"Ġcampa":2619,"Ġhighest":2620,"Ġsometimes":2621,"Ġsummer":2622,"Ġindustry":2623,"Ġsubsequently":2624,"Ġcarolina":2625,"Ġarkans":2626,"Ġtwenty":2627,"Ġrepublic":2628,"Ġbruins":2629,"bod":2630,"che":2631,"ep":2632,"ges":2633,"ler":2634,"sel":2635,"ze":2636,"Ġsac":2637,"Ġwood":2638,"Ġcam":2639,"Ġfight":2640,"Ġfired":2641,"Ġfeder":2642,"Ġbh":2643,"Ġpet":2644,"Ġpred":2645,"Ġpract":2646,"isod":2647,"Ġmv":2648,"Ġmal":2649,"Ġmight":2650,"Ġmother":2651,"anes":2652,"ases":2653,"aster":2654,"Ġlaw":2655,"Ġren":2656,"Ġnon":2657,"iral":2658,"isters":2659,"ago":2660,"hern":2661,"Ġyl":2662,"Ġneolithic":2663,"aces":2664,"Ġens":2665,"Ġcompounds":2666,"Ġagreed":2667,"Ġmont":2668,"Ġ1994":2669,"Ġknow":2670,"Ġmethod":2671,"Ġphys":2672,"Ġinstrum":2673,"Ġelements":2674,"Ġbackground":2675,"Ġentire":2676,"Ġenglish":2677,"Ġremaining":2678,"cient":2679,"Ġfeatured":2680,"Ġera":2681,"Ġopening":2682,"Ġissued":2683,"Ġappearances":2684,"Ġapproach":2685,"Ġweeks":2686,"Ġfung":2687,"Ġfigures":2688,"Ġpilots":2689,"Ġhelped":2690,"Ġepisod":2691,"Ġwinds":2692,"Ġselected":2693,"Ġwanted":2694,"Ġannounced":2695,"Ġarchitect":2696,"Ġcampaign":2697,"Ġarkansas":2698,"apt":2699,"ks":2700,"ugh":2701,"Ġtheat":2702,"Ġwid":2703,"Ġwander":2704,"Ġfr":2705,"Ġfre":2706,"Ġfict":2707,"Ġbow":2708,"Ġpark":2709,"Ġdan":2710,"Ġdut":2711,"ication":2712,"icago":2713,"Ġreason":2714,"Ġnation":2715,"Ġground":2716,"Ġgamb":2717,"Ġthai":2718,"olic":2719,"stand":2720,"Ġforced":2721,"Ġaspect":2722,"Ġupper":2723,"oted":2724,"ray":2725,"Ġ29":2726,"Ġdead":2727,"istan":2728,"Ġchicago":2729,"thing":2730,"Ġrif":2731,"Ġarg":2732,"Ġtwins":2733,"Ġ2001":2734,"Ġadam":2735,"Ġabs":2736,"Ġenv":2737,"Ġoffice":2738,"Ġseasons":2739,"Ġforms":2740,"Ġremov":2741,"Ġ1998":2742,"Ġworking":2743,"Ġcarbon":2744,"Ġminutes":2745,"Ġnumbers":2746,"Ġsaw":2747,"Ġsmith":2748,"Ġgermans":2749,"Ġwriter":2750,"Ġdepic":2751,"Ġinches":2752,"Ġzagre":2753,"Ġstudy":2754,"Ġconstru":2755,"Ġfranc":2756,"Ġgrad":2757,"Ġcollege":2758,"Ġrepresented":2759,"Ġpropag":2760,"Ġproposed":2761,"Ġtemple":2762,"Ġtemples":2763,"Ġconcern":2764,"Ġsitu":2765,"Ġmidd":2766,"Ġtreas":2767,"Ġeuropean":2768,"medi":2769,"Ġcollabor":2770,"Ġcanada":2771,"Ġdetail":2772,"Ġnorthern":2773,"Ġrelationship":2774,"Ġfavor":2775,"Ġdominican":2776,"Ġfocus":2777,"Ġdavid":2778,"Ġfederal":2779,"Ġzagreb":2780,"band":2781,"ius":2782,"iber":2783,"la":2784,"oid":2785,"ope":2786,"Ġtal":2787,"Ġach":2788,"onment":2789,"Ġwing":2790,"Ġcy":2791,"Ġcross":2792,"Ġfa":2793,"Ġfall":2794,"Ġfits":2795,"ature":2796,"Ġbost":2797,"Ġpay":2798,"ises":2799,"Ġdon":2800,"Ġreb":2801,"Ġnet":2802,"Ġwasp":2803,"Ġstans":2804,"Ġ26":2805,"Ġsee":2806,"Ġchief":2807,"Ġkar":2808,"ify":2809,"orts":2810,"Ġscre":2811,"Ġearned":2812,"Ġmex":2813,"Ġformation":2814,"Ġtheme":2815,"Ġproducer":2816,"Ġsubject":2817,"Ġgenerally":2818,"Ġbroken":2819,"Ġdivided":2820,"Ġawarded":2821,"Ġengine":2822,"Ġmiles":2823,"Ġdollars":2824,"Ġmedia":2825,"Ġopened":2826,"Ġmagaz":2827,"Ġpromoted":2828,"Ġrespons":2829,"Ġreligion":2830,"Ġbaseball":2831,"Ġradio":2832,"Ġpossible":2833,"Ġindividuals":2834,"Ġeventually":2835,"Ġatlanta":2836,"Ġinterview":2837,"Ġwanderers":2838,"Ġpropagand":2839,"Ġstansfield":2840,"the":2841,"tim":2842,"inct":2843,"eru":2844,"Ġsize":2845,"onse":2846,"Ġfit":2847,"Ġben":2848,"Ġburn":2849,"orary":2850,"Ġpun":2851,"arily":2852,"Ġmic":2853,"asion":2854,"Ġhur":2855,"Ġlif":2856,"Ġgi":2857,"Ġgro":2858,"Ġgot":2859,"Ġthreat":2860,"Ġstan":2861,"iment":2862,"ching":2863,"Ġ27":2864,"ceed":2865,"Ġsepar":2866,"Ġconver":2867,"Ġconsec":2868,"Ġproper":2869,"Ġarr":2870,"Ġexit":2871,"Ġexcept":2872,"ateg":2873,"Ġunl":2874,"acre":2875,"Ġtex":2876,"ological":2877,"Ġfinally":2878,"Ġraaf":2879,"Ġboard":2880,"Ġwars":2881,"Ġmoney":2882,"Ġ80":2883,"Ġcarried":2884,"Ġretired":2885,"ributed":2886,"Ġarms":2887,"Ġarmed":2888,"Ġassist":2889,"Ġbrother":2890,"ification":2891,"Ġguit":2892,"Ġ1939":2893,"Ġmadison":2894,"Ġreviews":2895,"Ġresponse":2896,"Ġphiladelphia":2897,"Ġplayoffs":2898,"Ġmanager":2899,"Ġprogram":2900,"Ġaerodromes":2901,"Ġveeru":2902,"Ġexample":2903,"Ġcompany":2904,"Ġlanguage":2905,"Ġavailable":2906,"Ġenvir":2907,"Ġmiddle":2908,"bs":2909,"don":2910,"gress":2911,"tt":2912,"uck":2913,"inem":2914,"Ġsister":2915,"Ġsisters":2916,"Ġcab":2917,"Ġcert":2918,"Ġban":2919,"itors":2920,"Ġmel":2921,"Ġdate":2922,"ica":2923,"Ġlib":2924,"Ġecon":2925,"omm":2926,"imin":2927,"Ġancient":2928,"Ġjul":2929,"Ġsearch":2930,"Ġven":2931,"Ġkings":2932,"iest":2933,"Ġneg":2934,"Ġnecess":2935,"ript":2936,"Ġexec":2937,"alled":2938,"Ġscul":2939,"Ġcontr":2940,"ounts":2941,"Ġoffer":2942,"Ġ184":2943,"Ġoverall":2944,"Ġflow":2945,"Ġmeas":2946,"Ġantiqu":2947,"Ġthemes":2948,"Ġcharl":2949,"Ġaccess":2950,"Ġmetres":2951,"Ġsaf":2952,"Ġelect":2953,"Ġquick":2954,"Ġzr":2955,"Ġvariety":2956,"Ġtransferred":2957,"Ġcreation":2958,"Ġterm":2959,"Ġterms":2960,"Ġplanning":2961,"Ġfrank":2962,"Ġsupported":2963,"Ġparticip":2964,"Ġheaven":2965,"Ġhands":2966,"rison":2967,"Ġcontrolled":2968,"Ġinfluenced":2969,"Ġnatural":2970,"Ġpaul":2971,"Ġlabor":2972,"Ġallowing":2973,"Ġmemor":2974,"Ġcaptain":2975,"Ġgrand":2976,"Ġkilled":2977,"Ġlyric":2978,"Ġshrine":2979,"Ġestimated":2980,"Ġhungarian":2981,"Ġultim":2982,"Ġcerem":2983,"Ġmvp":2984,"Ġachie":2985,"Ġboston":2986,"Ġmagazine":2987,"Ġconsecutive":2988,"Ġenvironment":2989,"Ġeconom":2990,"cent":2991,"por":2992,"uous":2993,"wh":2994,"Ġtree":2995,"Ġaw":2996,"Ġcost":2997,"Ġcath":2998,"Ġcorn":2999,"Ġfut":3000,"anced":3001,"Ġdun":3002,"Ġdeter":3003,"Ġnaz":3004,"Ġgross":3005,"ilis":3006,"ole":3007,"let":3008,"lect":3009,"Ġsto":3010,"Ġalways":3011,"erse":3012,"Ġjud":3013,"usion":3014,"Ġvan":3015,"Ġchap":3016,"osp":3017,"ements":3018,"Ġke":3019,"Ġkra":3020,"Ġexpect":3021,"Ġuns":3022,"Ġafric":3023,"acy":3024,"Ġ36":3025,"ellig":3026,"Ġnewsp":3027,"Ġintellig":3028,"Ġitself":3029,"Ġparts":3030,"Ġflower":3031,"Ġmostly":3032,"Ġ1996":3033,"Ġ1999":3034,"Ġacting":3035,"Ġ60":3036,"Ġending":3037,"Ġconsisted":3038,"Ġdepict":3039,"Ġartists":3040,"Ġbelow":3041,"Ġ1918":3042,"Ġcritics":3043,"Ġ1920":3044,"Ġgovernor":3045,"Ġcontinue":3046,"Ġmedway":3047,"Ġwilliam":3048,"Ġaustro":3049,"Ġprovided":3050,"Ġnaval":3051,"Ġestablish":3052,"Ġattempted":3053,"Ġturned":3054,"Ġrequired":3055,"Ġvocals":3056,"Ġfairies":3057,"Ġitalian":3058,"Ġconducted":3059,"Ġindepend":3060,"selves":3061,"Ġpropaganda":3062,"Ġzrnyi":3063,"aut":3064,"bb":3065,"bal":3066,"ma":3067,"oon":3068,"thes":3069,"Ġton":3070,"Ġtied":3071,"erved":3072,"Ġsam":3073,"real":3074,"Ġcinem":3075,"Ġface":3076,"Ġfox":3077,"Ġbank":3078,"Ġpak":3079,"Ġpenn":3080,"alth":3081,"Ġdro":3082,"Ġnuc":3083,"outh":3084,"iths":3085,"Ġjai":3086,"Ġvice":3087,"Ġconcept":3088,"tered":3089,"oss":3090,"hers":3091,"Ġplans":3092,"Ġroom":3093,"Ġrobert":3094,"Ġextend":3095,"ability":3096,"Ġunit":3097,"oph":3098,"Ġscene":3099,"ells":3100,"Ġpoly":3101,"Ġnewly":3102,"Ġtend":3103,"Ġenc":3104,"Ġcommit":3105,"reek":3106,"Ġcaused":3107,"Ġdisplay":3108,"rying":3109,"Ġflo":3110,"Ġprep":3111,"ricane":3112,"Ġthemselves":3113,"Ġ1997":3114,"Ġactress":3115,"Ġgenus":3116,"Ġended":3117,"Ġmaxim":3118,"Ġarchaeologists":3119,"Ġattention":3120,"Ġsymb":3121,"Ġhighly":3122,"Ġdoor":3123,"Ġ1985":3124,"Ġ1988":3125,"Ġentertain":3126,"Ġloan":3127,"Ġdiscuss":3128,"Ġmove":3129,"emble":3130,"Ġordered":3131,"Ġplanned":3132,"Ġgroups":3133,"Ġgrant":3134,"Ġexcavations":3135,"Ġincrease":3136,"Ġcourse":3137,"Ġsites":3138,"Ġlaun":3139,"Ġmonths":3140,"Ġreplaced":3141,"Ġwales":3142,"Ġrequest":3143,"Ġcurrent":3144,"Ġsoldiers":3145,"Ġtorped":3146,"Ġmaster":3147,"Ġadmiral":3148,"Ġdestroyed":3149,"Ġcroat":3150,"Ġsexual":3151,"Ġtreaty":3152,"Ġsecretary":3153,"Ġpiece":3154,"Ġinformation":3155,"Ġtax":3156,"Ġcopies":3157,"Ġprobably":3158,"Ġanalys":3159,"Ġfungus":3160,"Ġhurricane":3161,"Ġlyrics":3162,"Ġpakistan":3163,"Ġnucle":3164,"Ġtorpedo":3165,"cop":3166,"ga":3167,"oice":3168,"pre":3169,"rate":3170,"win":3171,"zy":3172,"Ġaot":3173,"heast":3174,"inc":3175,"Ġwins":3176,"Ġbol":3177,"Ġbir":3178,"Ġbene":3179,"isers":3180,"aring":3181,"Ġmi":3182,"Ġmort":3183,"Ġmount":3184,"Ġmale":3185,"Ġder":3186,"Ġded":3187,"Ġreact":3188,"Ġthom":3189,"Ġalmost":3190,"rae":3191,"eth":3192,"igg":3193,"Ġjap":3194,"Ġvess":3195,"Ġker":3196,"Ġkind":3197,"Ġyet":3198,"Ġplain":3199,"Ġexeter":3200,"Ġexhib":3201,"allow":3202,"anti":3203,"Ġnotes":3204,"Ġperman":3205,"ously":3206,"Ġcompos":3207,"Ġoffered":3208,"arked":3209,"Ġcaa":3210,"Ġspring":3211,"Ġ1991":3212,"Ġspecific":3213,"Ġ88":3214,"Ġrelated":3215,"Ġlongacre":3216,"Ġassigned":3217,"Ġzap":3218,"Ġbatter":3219,"Ġ1986":3220,"Ġ1943":3221,"Ġmaint":3222,"Ġtrue":3223,"Ġfranch":3224,"Ġgrew":3225,"Ġgreen":3226,"Ġalongside":3227,"Ġprevent":3228,"Ġresulted":3229,"Ġpurch":3230,"Ġservices":3231,"Ġsynthes":3232,"Ġbelief":3233,"Ġwoman":3234,"Ġmoral":3235,"Ġtracks":3236,"Ġpreviously":3237,"Ġinitial":3238,"Ġsolo":3239,"Ġallowed":3240,"Ġbodies":3241,"Ġauthorities":3242,"Ġtitle":3243,"Ġvocal":3244,"Ġhours":3245,"Ġairports":3246,"Ġclear":3247,"Ġsuffered":3248,"Ġdouble":3249,"Ġaccepted":3250,"Ġinspired":3251,"Ġbattleships":3252,"Ġbecoming":3253,"Ġscholars":3254,"Ġtowards":3255,"Ġrevealed":3256,"Ġchampionship":3257,"Ġaspects":3258,"Ġfrancis":3259,"Ġmexico":3260,"Ġguitar":3261,"Ġlibr":3262,"Ġsculpt":3263,"fact":3264,"go":3265,"mp":3266,"ple":3267,"zher":3268,"zog":3269,"Ġx":3270,"Ġsour":3271,"ream":3272,"Ġwide":3273,"Ġwides":3274,"Ġble":3275,"Ġbud":3276,"Ġbah":3277,"Ġple":3278,"Ġpaper":3279,"Ġmac":3280,"aly":3281,"Ġdict":3282,"Ġhus":3283,"Ġhired":3284,"Ġtold":3285,"Ġlower":3286,"Ġreferred":3287,"Ġthink":3288,"Ġhen":3289,"Ġfort":3290,"Ġbeat":3291,"urg":3292,"urity":3293,"Ġasked":3294,"utions":3295,"Ġjer":3296,"Ġwhose":3297,"Ġconclud":3298,"Ġchall":3299,"Ġkey":3300,"Ġrather":3301,"Ġplaces":3302,"Ġ2000":3303,"Ġado":3304,"Ġtimbal":3305,"Ġ42":3306,"Ġamun":3307,"Ġgoat":3308,"Ġgoing":3309,"Ġspeed":3310,"Ġdiss":3311,"tee":3312,"Ġrav":3313,"Ġflood":3314,"Ġblood":3315,"ression":3316,"Ġ1995":3317,"Ġ76":3318,"Ġacqu":3319,"Ġconsist":3320,"Ġsurf":3321,"Ġmarried":3322,"Ġemer":3323,"Ġleader":3324,"Ġquar":3325,"Ġ1984":3326,"Ġentered":3327,"Ġ1940":3328,"Ġmarked":3329,"Ġowned":3330,"Ġhumans":3331,"Ġstep":3332,"Ġstarting":3333,"Ġlisted":3334,"Ġerzher":3335,"Ġissues":3336,"Ġ1950":3337,"Ġsevent":3338,"Ġapproxim":3339,"Ġincreased":3340,"Ġoppos":3341,"Ġinfluence":3342,"Ġperformances":3343,"ique":3344,"Ġmask":3345,"Ġvictor":3346,"Ġcompetition":3347,"Ġlatin":3348,"Ġfailed":3349,"Ġfragilis":3350,"Ġreagents":3351,"Ġintroduced":3352,"Ġmegaliths":3353,"Ġsurrounding":3354,"Ġremoved":3355,"Ġconstructed":3356,"Ġtexts":3357,"Ġcatholic":3358,"Ġcommittee":3359,"Ġthomas":3360,"Ġfranchise":3361,"Ġhusband":3362,"Ġtimbaland":3363,"Ġerzherzog":3364,"den":3365,"gr":3366,"jo":3367,"king":3368,"lo":3369,"pg":3370,"syl":3371,"to":3372,"ters":3373,"track":3374,"war":3375,"xis":3376,"Ġtale":3377,"Ġtenn":3378,"head":3379,"era":3380,"Ġsus":3381,"Ġsky":3382,"Ġos":3383,"Ġour":3384,"Ġcateg":3385,"Ġfest":3386,"Ġbal":3387,"Ġbass":3388,"Ġpair":3389,"ense":3390,"Ġdaugh":3391,"Ġhind":3392,"Ġhorn":3393,"Ġlet":3394,"Ġlink":3395,"Ġreach":3396,"Ġgall":3397,"olk":3398,"Ġstreak":3399,"Ġash":3400,"ote":3401,"rain":3402,"ership":3403,"Ġje":3404,"ument":3405,"ully":3406,"ems":3407,"eman":3408,"Ġproble":3409,"Ġarrest":3410,"Ġroles":3411,"Ġleon":3412,"iple":3413,"Ġ38":3414,"Ġfeel":3415,"Ġworship":3416,"aped":3417,"Ġindic":3418,"Ġimmedi":3419,"Ġ180":3420,"Ġspent":3421,"teen":3422,"phy":3423,"Ġ1993":3424,"Ġ70":3425,"Ġminister":3426,"ribution":3427,"Ġarmor":3428,"Ġ90":3429,"Ġbrown":3430,"azz":3431,"Ġsingh":3432,"Ġentran":3433,"Ġstudies":3434,"Ġengaged":3435,"Ġ1944":3436,"Ġprominent":3437,"cially":3438,"Ġsmaller":3439,"Ġmatches":3440,"Ġjohnson":3441,"Ġdistinct":3442,"Ġcounty":3443,"Ġglid":3444,"Ġstandards":3445,"Ġinfluences":3446,"Ġsoundtrack":3447,"Ġmagn":3448,"Ġtrees":3449,"Ġlabel":3450,"Ġfreeway":3451,"Ġpraised":3452,"Ġsaying":3453,"Ġhigher":3454,"Ġattended":3455,"Ġidea":3456,"Ġillust":3457,"Ġclaimed":3458,"roscop":3459,"Ġpurpose":3460,"Ġthakur":3461,"Ġfellow":3462,"Ġshooting":3463,"Ġregarded":3464,"Ġinjury":3465,"Ġassassination":3466,"Ġfictional":3467,"standing":3468,"Ġfuture":3469,"Ġpennsyl":3470,"Ġzapata":3471,"Ġapproximately":3472,"Ġpennsylv":3473,"din":3474,"gen":3475,"ker":3476,"lin":3477,"pread":3478,"val":3479,"ya":3480,"Ġ?":3481,"Ġtons":3482,"iny":3483,"Ġsav":3484,"reg":3485,"Ġwa":3486,"Ġwre":3487,"Ġwil":3488,"Ġcas":3489,"Ġcos":3490,"Ġbad":3491,"Ġbay":3492,"iter":3493,"Ġpict":3494,"isl":3495,"enes":3496,"aria":3497,"Ġmust":3498,"Ġmys":3499,"Ġdoc":3500,"Ġdance":3501,"Ġdone":3502,"Ġdram":3503,"Ġdiam":3504,"Ġandrew":3505,"Ġhom":3506,"Ġhapp":3507,"Ġliving":3508,"Ġrein":3509,"Ġrefer":3510,"Ġthail":3511,"ental":3512,"eless":3513,"ades":3514,"Ġstage":3515,"Ġhealth":3516,"iring":3517,"lywood":3518,"ids":3519,"Ġwithd":3520,"Ġvir":3521,"Ġvia":3522,"Ġchange":3523,"oses":3524,"emed":3525,"Ġrang":3526,"iff":3527,"ift":3528,"Ġlev":3529,"Ġunits":3530,"antic":3531,"Ġ300":3532,"astrum":3533,"Ġpoles":3534,"Ġintended":3535,"Ġcompl":3536,"Ġcompared":3537,"Ġdism":3538,"Ġrain":3539,"Ġrays":3540,"Ġcolor":3541,"Ġ75":3542,"Ġmax":3543,"Ġmetall":3544,"Ġimpact":3545,"Ġsurre":3546,"Ġemp":3547,"Ġsms":3548,"Ġassemb":3549,"Ġwrite":3550,"Ġwriters":3551,"Ġantimon":3552,"Ġpositive":3553,"Ġcarey":3554,"Ġinvited":3555,"Ġdecision":3556,"Ġadded":3557,"Ġslow":3558,"Ġfeaturing":3559,"Ġ1930":3560,"Ġprojects":3561,"Ġreports":3562,"Ġfrance":3563,"Ġsixth":3564,"Ġsupporting":3565,"Ġrepresentative":3566,"Ġmissing":3567,"Ġgeastrum":3568,"Ġseventh":3569,"Ġstruct":3570,"Ġcharacteristics":3571,"Ġmajority":3572,"Ġ1970":3573,"Ġstanding":3574,"Ġstandard":3575,"Ġpassed":3576,"Ġchem":3577,"Ġesc":3578,"Ġcruiser":3579,"Ġcapital":3580,"Ġcanadian":3581,"Ġoccupied":3582,"Ġcreator":3583,"Ġdiscovery":3584,"Ġtraditional":3585,"Ġidentified":3586,"Ġlegisl":3587,"Ġfriends":3588,"Ġpolicy":3589,"Ġeye":3590,"Ġkeep":3591,"Ġopportunities":3592,"Ġmontreal":3593,"Ġepisode":3594,"Ġfrequ":3595,"Ġgambia":3596,"Ġgradu":3597,"Ġsituation":3598,"Ġcontrast":3599,"Ġintelligence":3600,"Ġsymbol":3601,"Ġpermanent":3602,"Ġwidespread":3603,"Ġcosm":3604,"Ġthailand":3605,"be":3606,"chest":3607,"de":3608,"gs":3609,"light":3610,"lls":3611,"mun":3612,"ney":3613,"sb":3614,"sin":3615,"ti":3616,"uel":3617,"Ġtrib":3618,"Ġaim":3619,"Ġod":3620,"Ġcore":3621,"Ġfix":3622,"Ġfans":3623,"Ġbott":3624,"Ġpus":3625,"Ġpaint":3626,"isation":3627,"Ġmur":3628,"Ġmakes":3629,"ingu":3630,"Ġdub":3631,"Ġlines":3632,"Ġnin":3633,"Ġnam":3634,"eles":3635,"Ġstay":3636,"Ġund":3637,"Ġalle":3638,"Ġjazz":3639,"owski":3640,"ume":3641,"Ġwhole":3642,"Ġath":3643,"Ġchair":3644,"Ġkit":3645,"Ġkhan":3646,"anded":3647,"Ġran":3648,"pecially":3649,"Ġprohib":3650,"Ġplat":3651,"order":3652,"Ġworst":3653,"Ġscient":3654,"Ġnews":3655,"Ġenough":3656,"irement":3657,"Ġairsp":3658,"Ġspores":3659,"Ġuses":3660,"phas":3661,"Ġregional":3662,"Ġbox":3663,"Ġ1992":3664,"Ġweap":3665,"Ġprint":3666,"Ġsecondary":3667,"Ġcancer":3668,"Ġpoor":3669,"Ġemphas":3670,"Ġsail":3671,"Ġbetter":3672,"Ġnorm":3673,"Ġgeneration":3674,"Ġlik":3675,"Ġartist":3676,"Ġdirected":3677,"Ġdirectly":3678,"Ġobt":3679,"Ġ1911":3680,"Ġchristian":3681,"bai":3682,"Ġowner":3683,"Ġbridge":3684,"Ġgreg":3685,"Ġheavily":3686,"Ġconsider":3687,"Ġstrugg":3688,"Ġannual":3689,"Ġassociated":3690,"ready":3691,"Ġadvanced":3692,"Ġespecially":3693,"Ġexperi":3694,"Ġoccupation":3695,"Ġmanagement":3696,"Ġdiscovered":3697,"Ġphotograph":3698,"Ġspecimen":3699,"Ġterritory":3700,"Ġoccurred":3701,"Ġaudience":3702,"Ġrituals":3703,"Ġobjects":3704,"Ġylide":3705,"Ġcarbonaria":3706,"Ġgiants":3707,"Ġassistant":3708,"Ġquickly":3709,"Ġdeterm":3710,"Ġanalysis":3711,"Ġfrancisco":3712,"Ġhusbandman":3713,"Ġtennant":3714,"Ġairspace":3715,"ban":3716,"eenth":3717,"hum":3718,"ih":3719,"lor":3720,"men":3721,"of":3722,"ska":3723,"ta":3724,"Ġic":3725,"Ġice":3726,"Ġtig":3727,"Ġactions":3728,"erous":3729,"Ġsout":3730,"Ġsipp":3731,"oned":3732,"Ġcele":3733,"Ġfame":3734,"Ġfolk":3735,"atively":3736,"Ġbc":3737,"Ġbre":3738,"Ġbran":3739,"orth":3740,"enge":3741,"Ġmum":3742,"Ġmention":3743,"Ġdial":3744,"Ġtoday":3745,"icle":3746,"Ġnbc":3747,"Ġgive":3748,"Ġthick":3749,"ili":3750,"ama":3751,"Ġhere":3752,"oty":3753,"Ġaltern":3754,"Ġalready":3755,"change":3756,"umed":3757,"Ġdeploy":3758,"usz":3759,"istry":3760,"thur":3761,"Ġkim":3762,"aging":3763,"Ġrum":3764,"Ġrhod":3765,"Ġproceed":3766,"Ġye":3767,"Ġlear":3768,"opol":3769,"ogen":3770,"ipl":3771,"Ġallied":3772,"acing":3773,"claim":3774,"Ġscott":3775,"Ġshell":3776,"ocr":3777,"Ġagric":3778,"Ġairfield":3779,"Ġparty":3780,"Ġspot":3781,"Ġrap":3782,"Ġrare":3783,"Ġraised":3784,"Ġmeant":3785,"Ġactive":3786,"Ġtrain":3787,"Ġ600":3788,"Ġproduce":3789,"Ġpope":3790,"Ġsurp":3791,"Ġmarsh":3792,"Ġemot":3793,"Ġ95":3794,"Ġelev":3795,"Ġelement":3796,"Ġbrook":3797,"Ġsingles":3798,"Ġbelong":3799,"Ġ1941":3800,"Ġofficially":3801,"Ġbasis":3802,"Ġ1929":3803,"Ġexpressed":3804,"Ġopin":3805,"Ġpopulation":3806,"Ġinside":3807,"Ġdemonst":3808,"Ġsquare":3809,"Ġcomplex":3810,"Ġpattern":3811,"Ġmissed":3812,"Ġgiving":3813,"ograp":3814,"Ġcharts":3815,"Ġactivity":3816,"Ġconfeder":3817,"Ġeffort":3818,"Ġdestruction":3819,"Ġpromotion":3820,"Ġtrophy":3821,"Ġprotect":3822,"Ġextre":3823,"Ġforest":3824,"Ġcaptured":3825,"Ġhistorical":3826,"Ġgirl":3827,"Ġearthst":3828,"Ġfunding":3829,"Ġpotential":3830,"Ġaerodrome":3831,"Ġsubstit":3832,"Ġlatter":3833,"Ġcombined":3834,"Ġobservatory":3835,"Ġhorus":3836,"Ġmixed":3837,"Ġgrowth":3838,"Ġnarr":3839,"Ġdarwin":3840,"Ġsubmarine":3841,"Ġsubmarines":3842,"Ġrespectively":3843,"Ġtarget":3844,"Ġcounter":3845,"Ġincreasingly":3846,"Ġferdin":3847,"Ġcommented":3848,"Ġphysical":3849,"Ġtreasury":3850,"Ġdetails":3851,"Ġfavorite":3852,"Ġmemorial":3853,"Ġultimately":3854,"Ġceremony":3855,"Ġlaunched":3856,"Ġentrance":3857,"Ġsippy":3858,"Ġferdinand":3859,"actions":3860,"cil":3861,"fall":3862,"kins":3863,"mates":3864,"ras":3865,"uk":3866,"vis":3867,"zco":3868,"Ġ!":3869,"Ġak":3870,"here":3871,"inity":3872,"Ġwy":3873,"Ġwiz":3874,"Ġoro":3875,"Ġoil":3876,"Ġovers":3877,"Ġcit":3878,"Ġcand":3879,"Ġcited":3880,"Ġfal":3881,"Ġbab":3882,"itz":3883,"Ġpain":3884,"Ġinn":3885,"isf":3886,"Ġmes":3887,"Ġmol":3888,"Ġmary":3889,"Ġmob":3890,"aled":3891,"ington":3892,"Ġdrew":3893,"Ġdream":3894,"Ġhot":3895,"Ġhair":3896,"Ġleng":3897,"Ġlayer":3898,"Ġrear":3899,"Ġreign":3900,"Ġreduced":3901,"Ġnash":3902,"Ġones":3903,"ompl":3904,"Ġstars":3905,"uri":3906,"idents":3907,"ivity":3908,"ety":3909,"ump":3910,"Ġdeep":3911,"ush":3912,"Ġyour":3913,"orted":3914,"ription":3915,"ateur":3916,"Ġunique":3917,"aked":3918,"Ġwhether":3919,"Ġnoting":3920,"Ġ33":3921,"Ġtwice":3922,"Ġrecre":3923,"Ġsched":3924,"Ġscript":3925,"eller":3926,"Ġteac":3927,"Ġability":3928,"Ġamateur":3929,"Ġenem":3930,"Ġimages":3931,"Ġcause":3932,"Ġdisp":3933,"Ġusually":3934,"Ġmusical":3935,"Ġfinan":3936,"Ġfinish":3937,"Ġbob":3938,"Ġwee":3939,"Ġ86":3940,"Ġretirement":3941,"Ġmaat":3942,"Ġaccomp":3943,"Ġaccompl":3944,"awa":3945,"Ġquest":3946,"Ġsinger":3947,"Ġdefin":3948,"Ġdefensive":3949,"Ġdoing":3950,"Ġ1914":3951,"Ġinvasion":3952,"Ġ1942":3953,"Ġvalue":3954,"Ġtransfer":3955,"Ġclassic":3956,"Ġcreate":3957,"Ġpublication":3958,"Ġsettle":3959,"Ġordn":3960,"Ġ1926":3961,"Ġ1937":3962,"Ġdesignated":3963,"Ġbrig":3964,"Ġdistrict":3965,"Ġcollection":3966,"Ġcomplet":3967,"Ġcomplete":3968,"Ġpatron":3969,"Ġ1954":3970,"Ġorganized":3971,"Ġorganization":3972,"Ġperforming":3973,"rising":3974,"Ġmodel":3975,"Ġprovide":3976,"Ġconcent":3977,"Ġsales":3978,"ervation":3979,"Ġlosing":3980,"Ġmuseums":3981,"Ġpressure":3982,"Ġlanding":3983,"Ġswallow":3984,"Ġmagic":3985,"Ġpresented":3986,"Ġ1861":3987,"Ġrefused":3988,"Ġreflect":3989,"Ġreplace":3990,"Ġcovered":3991,"Ġsays":3992,"Ġvictory":3993,"Ġflights":3994,"Ġfarm":3995,"Ġitaly":3996,"Ġtombs":3997,"Ġlosses":3998,"Ġpurposes":3999,"Ġtypically":4000,"Ġastrae":4001,"Ġwords":4002,"Ġthaksin":4003,"Ġranked":4004,"Ġpanel":4005,"Ġgeorge":4006,"Ġelephanta":4007,"Ġliterature":4008,"Ġconcerned":4009,"Ġscreen":4010,"Ġnecessary":4011,"Ġenvironmental":4012,"Ġnazi":4013,"Ġkept":4014,"Ġnewspaper":4015,"Ġfloor":4016,"Ġprepared":4017,"Ġtaxon":4018,"Ġnuclear":4019,"Ġconcluded":4020,"Ġimmediately":4021,"roscopic":4022,"Ġdocument":4023,"Ġsurrender":4024,"Ġbottom":4025,"Ġmumbai":4026,"Ġwizards":4027,"Ġorozco":4028,"Ġlength":4029,"Ġaccompan":4030,"aud":4031,"arent":4032,"back":4033,"cru":4034,"ger":4035,"hist":4036,"ipped":4037,"mon":4038,"och":4039,"ries":4040,"rant":4041,"wing":4042,"za":4043,"Ġtv":4044,"Ġale":4045,"ini":4046,"ino":4047,"inated":4048,"Ġsaint":4049,"Ġselling":4050,"Ġom":4051,"Ġcens":4052,"Ġcroy":4053,"nds":4054,"Ġfres":4055,"Ġfully":4056,"atch":4057,"Ġba":4058,"Ġpist":4059,"Ġinner":4060,"Ġmir":4061,"Ġmut":4062,"Ġmart":4063,"Ġdail":4064,"Ġdrum":4065,"Ġdread":4066,"Ġha":4067,"road":4068,"Ġlot":4069,"Ġlay":4070,"Ġreform":4071,"Ġgreek":4072,"Ġthr":4073,"stin":4074,"lement":4075,"lets":4076,"Ġforward":4077,"othe":4078,"raged":4079,"Ġanth":4080,"Ġjar":4081,"Ġseas":4082,"Ġsector":4083,"Ġsemi":4084,"Ġisis":4085,"Ġshare":4086,"Ġcoming":4087,"Ġsund":4088,"Ġleaving":4089,"illery":4090,"abled":4091,"aker":4092,"Ġnote":4093,"Ġ39":4094,"Ġfeast":4095,"Ġherself":4096,"Ġsche":4097,"Ġscore":4098,"Ġ400":4099,"Ġcontemp":4100,"Ġ2016":4101,"Ġcool":4102,"Ġspect":4103,"Ġspir":4104,"Ġspread":4105,"tender":4106,"izations":4107,"phic":4108,"Ġserious":4109,"Ġmeans":4110,"Ġprec":4111,"Ġprepar":4112,"Ġregul":4113,"Ġincludes":4114,"Ġnoise":4115,"Ġjoint":4116,"Ġrelief":4117,"Ġapparent":4118,"Ġemb":4119,"Ġhighlight":4120,"Ġwhereas":4121,"Ġelections":4122,"Ġartillery":4123,"Ġedition":4124,"Ġmarket":4125,"Ġvalid":4126,"Ġclasses":4127,"Ġreception":4128,"Ġnearby":4129,"Ġgram":4130,"Ġcollect":4131,"Ġglob":4132,"Ġpatt":4133,"Ġpurs":4134,"Ġelimin":4135,"Ġskull":4136,"Ġfuner":4137,"Ġlargest":4138,"Ġbattlecru":4139,"Ġpassing":4140,"Ġdeliv":4141,"Ġgoaltender":4142,"shire":4143,"Ġtelecom":4144,"Ġjackson":4145,"Ġinstitutions":4146,"Ġobserved":4147,"Ġlowe":4148,"Ġ1961":4149,"Ġequip":4150,"Ġtakes":4151,"Ġtitled":4152,"Ġsomething":4153,"Ġindividual":4154,"Ġstationed":4155,"cape":4156,"Ġstrike":4157,"Ġsulfide":4158,"Ġexamples":4159,"Ġapplied":4160,"Ġaverage":4161,"Ġdefeat":4162,"Ġrichard":4163,"Ġtypes":4164,"Ġvillage":4165,"hetic":4166,"Ġpenal":4167,"Ġcommissioned":4168,"Ġmultiple":4169,"Ġspecimens":4170,"Ġpermitted":4171,"Ġconnect":4172,"rief":4173,"Ġkurstin":4174,"Ġinstruments":4175,"Ġcycl":4176,"Ġwarsaw":4177,"Ġcabral":4178,"Ġjulian":4179,"Ġparticipated":4180,"Ġeconomic":4181,"Ġexpected":4182,"Ġestablishment":4183,"Ġdedicated":4184,"Ġdictator":4185,"Ġhenry":4186,"Ġflooding":4187,"Ġsurface":4188,"Ġquarter":4189,"Ġdaughter":4190,"Ġjeff":4191,"Ġpennsylvania":4192,"Ġdrama":4193,"Ġreinfor":4194,"Ġchairman":4195,"Ġrhode":4196,"Ġagricult":4197,"Ġcitiz":4198,"Ġcandid":4199,"Ġteachers":4200,"Ġordnance":4201,"Ġastraeus":4202,"Ġcroydon":4203,"Ġdaily":4204,"aur":4205,"ault":4206,"aired":4207,"apted":4208,"bor":4209,"bes":4210,"break":4211,"cel":4212,"cle":4213,"ds":4214,"ging":4215,"hi":4216,"haps":4217,"ja":4218,"oh":4219,"oen":4220,"oba":4221,"ror":4222,"sky":4223,"ties":4224,"vement":4225,"Ġtem":4226,"Ġtun":4227,"Ġtess":4228,"Ġtell":4229,"Ġtade":4230,"Ġaz":4231,"indu":4232,"Ġsought":4233,"onium":4234,"Ġwr":4235,"Ġwound":4236,"Ġost":4237,"Ġce":4238,"Ġcust":4239,"nding":4240,"Ġfred":4241,"Ġfaced":4242,"atus":4243,"atives":4244,"Ġbond":4245,"Ġbone":4246,"ita":4247,"itation":4248,"itable":4249,"Ġpeter":4250,"Ġppg":4251,"Ġinh":4252,"Ġmand":4253,"Ġmason":4254,"Ġmouth":4255,"ales":4256,"Ġdah":4257,"Ġhip":4258,"Ġhous":4259,"Ġhang":4260,"Ġhindu":4261,"Ġtouring":4262,"icz":4263,"Ġlou":4264,"Ġlie":4265,"Ġredu":4266,"Ġreally":4267,"olia":4268,"aded":4269,"omy":4270,"Ġstib":4271,"Ġstating":4272,"ota":4273,"otte":4274,"ida":4275,"rab":4276,"etic":4277,"Ġdeg":4278,"Ġdeemed":4279,"Ġseg":4280,"Ġvon":4281,"Ġchris":4282,"vert":4283,"Ġshore":4284,"Ġarrang":4285,"Ġplot":4286,"Ġrod":4287,"rial":4288,"Ġorland":4289,"Ġleave":4290,"Ġlegal":4291,"abit":4292,"Ġareas":4293,"Ġclock":4294,"Ġ37":4295,"Ġperhaps":4296,"Ġadapted":4297,"Ġ48":4298,"Ġamb":4299,"Ġamend":4300,"Ġenl":4301,"Ġagency":4302,"Ġoffs":4303,"ffic":4304,"Ġspore":4305,"Ġsports":4306,"Ġflint":4307,"Ġprem":4308,"Ġacts":4309,"Ġactually":4310,"Ġtravel":4311,"Ġacid":4312,"Ġseconds":4313,"Ġphoen":4314,"Ġmaria":4315,"Ġlonger":4316,"Ġassists":4317,"Ġpeace":4318,"Ġsuppl":4319,"Ġdefend":4320,"airs":4321,"Ġ1913":4322,"Ġ1915":4323,"Ġguest":4324,"Ġdescription":4325,"Ġgolden":4326,"Ġpublications":4327,"Ġbasic":4328,"Ġportug":4329,"Ġportico":4330,"Ġreturning":4331,"Ġconstit":4332,"rolight":4333,"ĠĠĠĠĠĠ":4334,"Ġbring":4335,"Ġparish":4336,"Ġflet":4337,"Ġthirty":4338,"Ġpatrick":4339,"Ġserving":4340,"Ġstraight":4341,"Ġmorning":4342,"Ġsalary":4343,"Ġcaliber":4344,"Ġadvance":4345,"Ġrestrict":4346,"Ġbillion":4347,"Ġbehav":4348,"Ġdebuted":4349,"Ġvisited":4350,"Ġprimarily":4351,"Ġinvolving":4352,"Ġextra":4353,"Ġacademic":4354,"Ġforeign":4355,"Ġsense":4356,"Ġmemory":4357,"Ġexperience":4358,"Ġhistoric":4359,"Ġideas":4360,"Ġnortheast":4361,"Ġdeclared":4362,"Ġprogress":4363,"Ġsuccessfully":4364,"Ġeffects":4365,"Ġangeles":4366,"Ġviolence":4367,"Ġimproved":4368,"Ġpieces":4369,"Ġhosted":4370,"Ġmeaning":4371,"Ġfruitbod":4372,"Ġrussian":4373,"Ġcredited":4374,"Ġpowered":4375,"Ġchanged":4376,"Ġquality":4377,"Ġcondition":4378,"Ġelephant":4379,"Ġcamera":4380,"Ġdaniel":4381,"Ġdepicted":4382,"Ġdepicts":4383,"Ġmicrolight":4384,"Ġthreatened":4385,"Ġstanley":4386,"Ġconverted":4387,"Ġproperty":4388,"Ġarrived":4389,"Ġ1849":4390,"Ġcharlotte":4391,"Ġsafety":4392,"Ġchapel":4393,"Ġafrica":4394,"Ġindependent":4395,"Ġextended":4396,"Ġencou":4397,"Ġcroatia":4398,"Ġbirth":4399,"Ġjapan":4400,"Ġsynthesis":4401,"Ġlibrary":4402,"Ġmaskray":4403,"Ġmagnolia":4404,"Ġdiameter":4405,"Ġempire":4406,"Ġlikely":4407,"Ġexperienced":4408,"Ġairfields":4409,"Ġnarrative":4410,"Ġcontemporary":4411,"Ġpatterson":4412,"Ġequipment":4413,"Ġtadeusz":4414,"Ġorlando":4415,"Ġphoenix":4416,"cast":4417,"cock":4418,"eg":4419,"gl":4420,"hold":4421,"iate":4422,"mer":4423,"mes":4424,"oard":4425,"oys":4426,"rd":4427,"rical":4428,"tar":4429,"uing":4430,"wall":4431,"Ġiv":4432,"Ġess":4433,"Ġign":4434,"Ġtrou":4435,"inist":4436,"Ġsand":4437,"Ġsort":4438,"Ġsri":4439,"onents":4440,"rec":4441,"rets":4442,"Ġcard":4443,"Ġfat":4444,"Ġfing":4445,"Ġfill":4446,"Ġbul":4447,"Ġbang":4448,"Ġbrief":4449,"orpor":4450,"Ġpeng":4451,"Ġpigg":4452,"Ġmcc":4453,"Ġdor":4454,"Ġdry":4455,"Ġdata":4456,"rox":4457,"Ġtom":4458,"Ġlives":4459,"Ġrepe":4460,"Ġnick":4461,"Ġthous":4462,"ented":4463,"elly":4464,"Ġwashing":4465,"Ġstren":4466,"Ġherit":4467,"Ġheight":4468,"imer":4469,"urti":4470,"otes":4471,"ette":4472,"Ġanup":4473,"Ġjam":4474,"Ġdepend":4475,"Ġsequ":4476,"Ġsection":4477,"Ġseek":4478,"ula":4479,"using":4480,"Ġcongress":4481,"Ġcha":4482,"agn":4483,"Ġrud":4484,"Ġshared":4485,"Ġshaped":4486,"Ġproved":4487,"esty":4488,"ifest":4489,"rian":4490,"riage":4491,"Ġorb":4492,"pton":4493,"Ġunus":4494,"ession":4495,"aken":4496,"que":4497,"ruct":4498,"antly":4499,"ude":4500,"ips":4501,"Ġ32":4502,"Ġfear":4503,"clus":4504,"Ġscale":4505,"Ġscope":4506,"Ġscenes":4507,"Ġshells":4508,"ocated":4509,"Ġadult":4510,"Ġadapt":4511,"Ġ41":4512,"Ġ47":4513,"Ġcontaining":4514,"Ġaband":4515,"Ġmane":4516,"Ġmanaged":4517,"Ġmanifest":4518,"Ġamount":4519,"ounted":4520,"Ġimper":4521,"oked":4522,"Ġ52":4523,"Ġ54":4524,"Ġpartly":4525,"Ġresemb":4526,"Ġfinishing":4527,"Ġsecurity":4528,"Ġovert":4529,"Ġunderne":4530,"Ġmeh":4531,"Ġpremi":4532,"Ġanton":4533,"Ġremix":4534,"Ġboy":4535,"Ġcolon":4536,"Ġacclaim":4537,"Ġjob":4538,"onym":4539,"Ġministry":4540,"Ġtherefore":4541,"Ġphara":4542,"Ġemmy":4543,"Ġmusician":4544,"Ġsupply":4545,"ledge":4546,"Ġ1987":4547,"Ġ1910":4548,"Ġremainder":4549,"Ġinvest":4550,"Ġslight":4551,"Ġmovement":4552,"Ġwinner":4553,"Ġmainly":4554,"Ġlocation":4555,"Ġsett":4556,"Ġportra":4557,"Ġcalling":4558,"Ġsteve":4559,"Ġposted":4560,"Ġdemons":4561,"Ġhyd":4562,"Ġgreatly":4563,"Ġresults":4564,"Ġglass":4565,"Ġgliding":4566,"Ġmission":4567,"Ġmissions":4568,"Ġ1952":4569,"Ġ1975":4570,"Ġsket":4571,"Ġskill":4572,"Ġfunction":4573,"Ġways":4574,"Ġtraded":4575,"Ġlightning":4576,"Ġrights":4577,"Ġtrip":4578,"Ġdelay":4579,"Ġeasa":4580,"Ġ1862":4581,"Ġstatute":4582,"Ġimportance":4583,"Ġextensive":4584,"Ġneverthe":4585,"Ġcruisers":4586,"Ġauthority":4587,"Ġdenomin":4588,"ivalent":4589,"Ġfacilities":4590,"Ġcreating":4591,"Ġdeclined":4592,"Ġburied":4593,"Ġobservations":4594,"Ġturrets":4595,"Ġrecognized":4596,"Ġmeanwh":4597,"Ġnominated":4598,"Ġnominations":4599,"Ġofficials":4600,"Ġbecomes":4601,"Ġanimal":4602,"Ġemployed":4603,"Ġbombard":4604,"Ġconnected":4605,"Ġshape":4606,"Ġjournalists":4607,"Ġpalin":4608,"Ġlicens":4609,"Ġconditions":4610,"Ġwidely":4611,"Ġdutch":4612,"Ġabsence":4613,"Ġnetwork":4614,"Ġresponsible":4615,"Ġseparate":4616,"Ġunlike":4617,"Ġentertainment":4618,"Ġbenef":4619,"Ġmortimer":4620,"Ġvessels":4621,"Ġsculpture":4622,"Ġadopted":4623,"Ġseventeenth":4624,"Ġvictoria":4625,"Ġfestival":4626,"Ġarrested":4627,"Ġpicture":4628,"Ġmysore":4629,"Ġlevels":4630,"Ġmurder":4631,"Ġathlet":4632,"Ġearthstar":4633,"Ġfinancial":4634,"Ġdreadn":4635,"Ġpenalty":4636,"Ġtessa":4637,"Ġfletcher":4638,"Ġpengu":4639,"Ġpiggott":4640,"Ġthousand":4641,"Ġwashington":4642,"Ġstreng":4643,"Ġheritage":4644,"Ġunderneath":4645,"Ġnevertheless":4646,"Ġmeanwhile":4647,"bed":4648,"cest":4649,"ding":4650,"gia":4651,"haw":4652,"ias":4653,"ios":4654,"iated":4655,"kan":4656,"kov":4657,"nel":4658,"sk":4659,"tv":4660,"uff":4661,"wide":4662,"wise":4663,"worth":4664,"Ġtheater":4665,"erg":4666,"erted":4667,"Ġsar":4668,"Ġsir":4669,"Ġsons":4670,"Ġwis":4671,"Ġwad":4672,"Ġwear":4673,"Ġcart":4674,"Ġcrow":4675,"Ġbon":4676,"Ġbach":4677,"Ġbones":4678,"itor":4679,"Ġpac":4680,"isions":4681,"Ġmis":4682,"Ġmph":4683,"Ġmound":4684,"ese":4685,"anc":4686,"asc":4687,"aska":4688,"Ġdv":4689,"Ġdies":4690,"Ġdru":4691,"Ġdhar":4692,"Ġham":4693,"Ġhosp":4694,"Ġtourn":4695,"Ġlu":4696,"Ġlog":4697,"Ġlane":4698,"Ġrend":4699,"Ġreject":4700,"Ġnative":4701,"Ġgh":4702,"Ġgulf":4703,"Ġeth":4704,"iling":4705,"elect":4706,"ston":4707,"Ġstal":4708,"Ġstore":4709,"Ġasian":4710,"iris":4711,"iration":4712,"uting":4713,"aykov":4714,"Ġanch":4715,"Ġanne":4716,"Ġjon":4717,"Ġjac":4718,"Ġvic":4719,"Ġvaud":4720,"Ġconne":4721,"Ġchamb":4722,"Ġchann":4723,"Ġchaykov":4724,"Ġko":4725,"Ġkent":4726,"Ġkras":4727,"Ġriding":4728,"Ġrhy":4729,"Ġshut":4730,"Ġpros":4731,"Ġneck":4732,"ifying":4733,"sey":4734,"Ġrob":4735,"Ġrough":4736,"ung":4737,"Ġorn":4738,"Ġlect":4739,"illance":4740,"arts":4741,"ighter":4742,"opy":4743,"ruption":4744,"antry":4745,"Ġtwin":4746,"Ġrecent":4747,"Ġrecover":4748,"Ġrecomm":4749,"Ġworth":4750,"apers":4751,"Ġpercent":4752,"Ġadvert":4753,"Ġcontent":4754,"Ġrepaired":4755,"Ġcomposed":4756,"Ġaggress":4757,"Ġfilmm":4758,"Ġfilmed":4759,"Ġsport":4760,"Ġupd":4761,"Ġearn":4762,"Ġflank":4763,"Ġoutstanding":4764,"Ġboys":4765,"Ġactors":4766,"Ġtraffic":4767,"Ġ64":4768,"Ġcharge":4769,"Ġcarter":4770,"Ġcarved":4771,"Ġbuck":4772,"Ġ77":4773,"Ġprison":4774,"Ġaccused":4775,"Ġarmored":4776,"Ġattract":4777,"Ġmarriage":4778,"icks":4779,"ocked":4780,"Ġ94":4781,"Ġmusicians":4782,"Ġassumed":4783,"Ġdepos":4784,"Ġincorpor":4785,"Ġbroke":4786,"Ġqueen":4787,"Ġdirectors":4788,"ifications":4789,"Ġloyal":4790,"Ġpromisc":4791,"Ġvalley":4792,"veillance":4793,"Ġtrust":4794,"Ġ1923":4795,"Ġ1925":4796,"Ġ1931":4797,"Ġexped":4798,"anka":4799,"Ġsteam":4800,"Ġcontinues":4801,"Ġstarred":4802,"Ġsimp":4803,"Ġrepresents":4804,"Ġanything":4805,"Ġfamous":4806,"Ġdistingu":4807,"Ġwilling":4808,"Ġcollected":4809,"Ġvideos":4810,"Ġorganizations":4811,"Ġconfir":4812,"Ġmorrison":4813,"Ġpasseng":4814,"Ġlasted":4815,"Ġchest":4816,"Ġcorps":4817,"inking":4818,"cont":4819,"Ġpaid":4820,"Ġstyles":4821,"Ġcircle":4822,"annah":4823,"Ġsimilarly":4824,"Ġequivalent":4825,"Ġadminist":4826,"Ġhistorian":4827,"Ġcriticism":4828,"Ġselect":4829,"Ġholds":4830,"Ġholding":4831,"Ġcrown":4832,"Ġrelationships":4833,"Ġsubsequent":4834,"Ġattempts":4835,"Ġshrines":4836,"Ġsignificantly":4837,"Ġgetting":4838,"Ġscholar":4839,"Ġduo":4840,"Ġexisting":4841,"Ġexistence":4842,"Ġtechnical":4843,"Ġgoddesses":4844,"Ġlooking":4845,"Ġguardian":4846,"Ġmachine":4847,"Ġchanges":4848,"Ġlicence":4849,"Ġrule":4850,"Ġmeeting":4851,"Ġfighting":4852,"Ġpractices":4853,"Ġknowledge":4854,"Ġreasons":4855,"Ġkarl":4856,"Ġachieved":4857,"Ġawa":4858,"Ġcornwall":4859,"Ġdepicting":4860,"Ġcinema":4861,"Ġbollywood":4862,"Ġbatteries":4863,"Ġpurchased":4864,"Ġsource":4865,"Ġjerzy":4866,"Ġconsisting":4867,"Ġosiris":4868,"Ġproblems":4869,"Ġleonard":4870,"Ġsavannah":4871,"Ġwreck":4872,"Ġhomes":4873,"Ġwithdra":4874,"Ġrangers":4875,"Ġcorey":4876,"Ġfixed":4877,"Ġnameless":4878,"Ġobtained":4879,"Ġcelebr":4880,"Ġmentioned":4881,"Ġrapid":4882,"Ġopinion":4883,"Ġconfederate":4884,"Ġsettlement":4885,"Ġgrammy":4886,"Ġreinforce":4887,"Ġcustom":4888,"Ġfruitbodies":4889,"Ġunusual":4890,"Ġinvestig":4891,"Ġpenguins":4892,"Ġbachchan":4893,"Ġdharm":4894,"Ġhospital":4895,"Ġvaudev":4896,"Ġchaykovsky":4897,"can":4898,"dney":4899,"gar":4900,"gated":4901,"gery":4902,"hood":4903,"joy":4904,"kh":4905,"kn":4906,"lock":4907,"mond":4908,"pir":4909,"pond":4910,"tic":4911,"ux":4912,"uit":4913,"ule":4914,"ufact":4915,"ville":4916,"we":4917,"writ":4918,"wick":4919,"xed":4920,"Ġtort":4921,"Ġtable":4922,"Ġtrick":4923,"Ġarab":4924,"erate":4925,"erick":4926,"Ġsell":4927,"Ġsele":4928,"Ġsoph":4929,"Ġwit":4930,"Ġoak":4931,"Ġcu":4932,"Ġcub":4933,"Ġfate":4934,"Ġfab":4935,"att":4936,"Ġbrist":4937,"itan":4938,"orus":4939,"Ġpack":4940,"ena":4941,"ening":4942,"Ġmess":4943,"Ġmine":4944,"Ġmike":4945,"esco":4946,"Ġdark":4947,"Ġdating":4948,"Ġhay":4949,"Ġhart":4950,"Ġhier":4951,"Ġrect":4952,"Ġna":4953,"Ġnut":4954,"Ġnha":4955,"Ġgard":4956,"Ġgust":4957,"Ġgang":4958,"Ġgather":4959,"Ġthrow":4960,"Ġeag":4961,"ils":4962,"olved":4963,"oming":4964,"Ġstable":4965,"Ġheart":4966,"Ġbeaut":4967,"urb":4968,"uries":4969,"Ġut":4970,"eton":4971,"uten":4972,"cend":4973,"Ġancon":4974,"Ġjim":4975,"Ġjose":4976,"umes":4977,"Ġseated":4978,"Ġaten":4979,"ulate":4980,"Ġvai":4981,"Ġvoted":4982,"Ġvoice":4983,"Ġisol":4984,"Ġchance":4985,"Ġchina":4986,"Ġchoice":4987,"thi":4988,"oselect":4989,"Ġka":4990,"Ġken":4991,"Ġkal":4992,"agues":4993,"Ġron":4994,"Ġrate":4995,"Ġrick":4996,"Ġsho":4997,"Ġshots":4998,"Ġprote":4999,"Ġyog":5000,"respond":5001,"Ġexclus":5002,"arters":5003,"ighth":5004,"Ġunkn":5005,"Ġunesco":5006,"iano":5007,"Ġnotable":5008,"Ġallies":5009,"astic":5010,"Ġrecently":5011,"Ġrecalled":5012,"cles":5013,"Ġscor":5014,"Ġ43":5015,"Ġcontain":5016,"Ġcontact":5017,"Ġintention":5018,"Ġmanufact":5019,"outing":5020,"Ġenanti":5021,"Ġindicated":5022,"Ġagre":5023,"Ġagust":5024,"Ġ51":5025,"Ġpartial":5026,"Ġspeaking":5027,"Ġdisabled":5028,"Ġspan":5029,"Ġspons":5030,"teenth":5031,"Ġresign":5032,"Ġresigned":5033,"ologies":5034,"Ġunderw":5035,"Ġraf":5036,"Ġflor":5037,"Ġmechan":5038,"Ġpreced":5039,"Ġregulation":5040,"Ġremarked":5041,"Ġthemed":5042,"wards":5043,"ressing":5044,"Ġactor":5045,"Ġgameplay":5046,"Ġinteraction":5047,"Ġwebs":5048,"Ġreleases":5049,"Ġ800":5050,"Ġknew":5051,"Ġproducing":5052,"Ġminim":5053,"Ġminnes":5054,"Ġmah":5055,"Ġpoe":5056,"Ġaccount":5057,"Ġattributed":5058,"Ġsurgery":5059,"Ġinstance":5060,"Ġsmo":5061,"Ġpresence":5062,"Ġsevere":5063,"Ġdeprec":5064,"Ġtrim":5065,"Ġelection":5066,"Ġzone":5067,"Ġdefence":5068,"Ġappeal":5069,"Ġvari":5070,"Ġarticle":5071,"Ġ1980":5072,"Ġnorthw":5073,"Ġ1917":5074,"Ġ1919":5075,"Ġmovie":5076,"Ġwinter":5077,"Ġsetting":5078,"Ġfounded":5079,"Ġfoundation":5080,"Ġexpanded":5081,"ierz":5082,"Ġplanet":5083,"uese":5084,"Ġbuildings":5085,"Ġoccas":5086,"Ġfamil":5087,"Ġdistribution":5088,"Ġresulting":5089,"Ġpersonnel":5090,"Ġdidn":5091,"Ġpowerful":5092,"Ġcommanding":5093,"Ġrepresenting":5094,"Ġadditionally":5095,"Ġorganised":5096,"Ġelse":5097,"Ġpropos":5098,"Ġuniverse":5099,"Ġ1973":5100,"Ġappearing":5101,"Ġskin":5102,"ussion":5103,"Ġtrials":5104,"Ġconcert":5105,"Ġcorrespond":5106,"Ġlands":5107,"Ġsuggests":5108,"Ġsuggesting":5109,"Ġrespond":5110,"Ġolder":5111,"Ġvisual":5112,"Ġstatistics":5113,"Ġturns":5114,"Ġcircum":5115,"oxide":5116,"Ġconvers":5117,"Ġprofession":5118,"Ġcapable":5119,"Ġsenators":5120,"Ġtoront":5121,"Ġsoviets":5122,"Ġcriticised":5123,"Ġtitles":5124,"Ġdenied":5125,"Ġdestroyers":5126,"Ġsanford":5127,"Ġattacks":5128,"Ġeverything":5129,"Ġcrime":5130,"Ġindustrial":5131,"Ġaveraged":5132,"Ġblockade":5133,"Ġhonor":5134,"Ġdefender":5135,"Ġnarrow":5136,"Ġhoped":5137,"Ġclosely":5138,"Ġbrand":5139,"Ġanimals":5140,"Ġterritories":5141,"onstruction":5142,"Ġcouncil":5143,"Ġmyths":5144,"Ġdiagn":5145,"Ġopportunity":5146,"Ġsacred":5147,"Ġrenamed":5148,"Ġrifle":5149,"Ġrifles":5150,"Ġcollaboration":5151,"Ġcertified":5152,"Ġmelod":5153,"Ġmeasure":5154,"Ġkrak":5155,"Ġtonnes":5156,"Ġmaximum":5157,"Ġreactor":5158,"Ġbudget":5159,"Ġemerged":5160,"Ġreaching":5161,"Ġrainfall":5162,"Ġchemical":5163,"Ġninth":5164,"Ġweapons":5165,"Ġicon":5166,"Ġrumors":5167,"Ġproceeded":5168,"Ġrarely":5169,"Ġextreme":5170,"Ġscheer":5171,"Ġcitizens":5172,"Ġcandidate":5173,"Ġfrederick":5174,"Ġmandatory":5175,"Ġlieuten":5176,"Ġportuguese":5177,"Ġfingal":5178,"Ġimperial":5179,"Ġpharaoh":5180,"Ġdenomination":5181,"Ġrejected":5182,"Ġchannel":5183,"Ġkrasnyi":5184,"Ġupdate":5185,"Ġpromiscuous":5186,"Ġbristol":5187,"Ġancona":5188,"Ġminnesota":5189,"Ġtoronto":5190,"18":5191,"bled":5192,"bee":5193,"ef":5194,"eper":5195,"fr":5196,"fan":5197,"fire":5198,"fare":5199,"gin":5200,"ji":5201,"jee":5202,"kes":5203,"kok":5204,"lim":5205,"more":5206,"mund":5207,"pr":5208,"tra":5209,"wis":5210,"well":5211,"yer":5212,"Ġire":5213,"Ġtas":5214,"Ġaa":5215,"Ġaid":5216,"Ġaxis":5217,"inum":5218,"insey":5219,"ergy":5220,"erve":5221,"Ġsad":5222,"Ġsars":5223,"rel":5224,"Ġoly":5225,"Ġoption":5226,"Ġott":5227,"Ġcav":5228,"Ġcres":5229,"Ġciting":5230,"Ġcns":5231,"Ġber":5232,"Ġbor":5233,"Ġbig":5234,"Ġbron":5235,"Ġbbc":5236,"ora":5237,"orter":5238,"Ġpound":5239,"Ġpath":5240,"arn":5241,"Ġmck":5242,"Ġmun":5243,"Ġmap":5244,"Ġmile":5245,"Ġmounts":5246,"Ġdele":5247,"Ġdyn":5248,"Ġhann":5249,"rovers":5250,"icide":5251,"ications":5252,"icted":5253,"Ġles":5254,"Ġling":5255,"Ġlived":5256,"Ġluc":5257,"Ġrever":5258,"Ġthing":5259,"station":5260,"stained":5261,"Ġstim":5262,"Ġstop":5263,"Ġstrict":5264,"Ġhero":5265,"Ġforty":5266,"urst":5267,"Ġaside":5268,"otic":5269,"Ġalone":5270,"idation":5271,"rap":5272,"etts":5273,"uth":5274,"uts":5275,"owa":5276,"umar":5277,"umber":5278,"Ġdeck":5279,"Ġseat":5280,"uls":5281,"usetts":5282,"Ġvac":5283,"Ġvatic":5284,"Ġitems":5285,"tery":5286,"avk":5287,"Ġkumar":5288,"Ġrid":5289,"Ġrub":5290,"Ġrise":5291,"Ġrival":5292,"herry":5293,"Ġcomes":5294,"Ġsustained":5295,"aine":5296,"Ġarts":5297,"Ġarih":5298,"Ġnebr":5299,"Ġrose":5300,"Ġroots":5301,"Ġexam":5302,"Ġlewis":5303,"iller":5304,"Ġunable":5305,"ogie":5306,"ovil":5307,"Ġrecru":5308,"clad":5309,"clusion":5310,"Ġperc":5311,"Ġadj":5312,"Ġcontrovers":5313,"outs":5314,"Ġamy":5315,"Ġamid":5316,"Ġammun":5317,"Ġcompar":5318,"Ġagent":5319,"Ġoffensive":5320,"Ġimm":5321,"oke":5322,"okes":5323,"Ġ56":5324,"Ġ57":5325,"Ġcape":5326,"achusetts":5327,"Ġspl":5328,"Ġresc":5329,"Ġresist":5330,"ologist":5331,"Ġundert":5332,"Ġflat":5333,"Ġflag":5334,"Ġapart":5335,"Ġserve":5336,"Ġprehist":5337,"Ġregions":5338,"Ġregiment":5339,"Ġoutbreak":5340,"Ġevans":5341,"Ġremember":5342,"Ġboats":5343,"Ġboogie":5344,"Ġmonitors":5345,"Ġinterpre":5346,"Ġtrav":5347,"Ġ62":5348,"Ġcarving":5349,"Ġcarrying":5350,"Ġknots":5351,"Ġends":5352,"Ġ71":5353,"Ġ79":5354,"Ġjoe":5355,"Ġsomewh":5356,"Ġprime":5357,"Ġprinc":5358,"Ġrevers":5359,"Ġrelatively":5360,"Ġsubs":5361,"Ġsubcont":5362,"Ġconsists":5363,"Ġcentre":5364,"Ġnumerous":5365,"Ġimplement":5366,"Ġsurveillance":5367,"Ġ92":5368,"Ġlongest":5369,"Ġassault":5370,"Ġpeaked":5371,"Ġtrinsey":5372,"Ġincomp":5373,"Ġliber":5374,"Ġzilt":5375,"Ġdefens":5376,"endra":5377,"Ġobst":5378,"Ġentry":5379,"Ġstudent":5380,"Ġengra":5381,"Ġedmund":5382,"Ġguid":5383,"Ġdecade":5384,"Ġdecades":5385,"Ġmoving":5386,"pective":5387,"Ġ1924":5388,"Ġinfantry":5389,"Ġ1936":5390,"Ġ1938":5391,"Ġexpos":5392,"ismo":5393,"Ġstefan":5394,"Ġbrut":5395,"Ġbarra":5396,"Ġmatter":5397,"Ġheads":5398,"Ġheadqu":5399,"Ġdemand":5400,"Ġdistance":5401,"Ġcountries":5402,"Ġdifferences":5403,"Ġgeopy":5404,"Ġserves":5405,"Ġelb":5406,"Ġ1976":5407,"Ġevening":5408,"Ġconfront":5409,"Ġefforts":5410,"Ġstrachan":5411,"Ġpositions":5412,"Ġsalv":5413,"Ġruns":5414,"Ġcorpor":5415,"Ġaerial":5416,"Ġlaid":5417,"Ġinstitution":5418,"Ġirreg":5419,"Ġlimit":5420,"Ġpolitic":5421,"Ġpolitics":5422,"Ġtrop":5423,"Ġ1960":5424,"Ġcommunities":5425,"Ġcataly":5426,"Ġvisitors":5427,"Ġdrawn":5428,"Ġnights":5429,"Ġconvin":5430,"Ġprize":5431,"Ġpitcher":5432,"Ġexplained":5433,"Ġoxford":5434,"Ġfifa":5435,"Ġeducational":5436,"Ġfairy":5437,"Ġcomeback":5438,"Ġpersu":5439,"Ġinterested":5440,"Ġaustralian":5441,"works":5442,"Ġsonthi":5443,"Ġsuffering":5444,"Ġbroadway":5445,"Ġbroadcast":5446,"Ġburial":5447,"Ġviolent":5448,"apsed":5449,"Ġapplication":5450,"Ġaveraging":5451,"Ġmassachusetts":5452,"Ġvolume":5453,"Ġrecognised":5454,"Ġironclad":5455,"Ġrichmond":5456,"Ġnomination":5457,"Ġbattleship":5458,"Ġrules":5459,"Ġreagent":5460,"Ġrussia":5461,"Ġintrodu":5462,"Ġmegalithic":5463,"Ġpicked":5464,"Ġcoastal":5465,"Ġgeorgia":5466,"Ġdifficulty":5467,"Ġpowers":5468,"Ġprotests":5469,"Ġsacr":5470,"Ġpractice":5471,"anese":5472,"Ġensemble":5473,"Ġarchitectural":5474,"Ġtheaters":5475,"Ġframe":5476,"Ġargued":5477,"Ġabsor":5478,"Ġcollaborated":5479,"Ġfaith":5480,"Ġburned":5481,"Ġbrothers":5482,"Ġnegot":5483,"Ġexecuted":5484,"Ġexecutive":5485,"Ġantiquaries":5486,"Ġlaboratory":5487,"Ġafrican":5488,"Ġbattery":5489,"Ġbaht":5490,"Ġravana":5491,"Ġacquired":5492,"Ġopposite":5493,"Ġletter":5494,"Ġglider":5495,"Ġgliders":5496,"Ġmetallic":5497,"Ġassembled":5498,"Ġfrequently":5499,"Ġgraduated":5500,"Ġodor":5501,"Ġtigers":5502,"Ġyeovil":5503,"ographer":5504,"Ġrecreational":5505,"Ġschedul":5506,"Ġenemy":5507,"Ġquestion":5508,"Ġdefinition":5509,"Ġcompletely":5510,"Ġreplacement":5511,"Ġalex":5512,"Ġglobe":5513,"Ġdahl":5514,"Ġlouis":5515,"Ġdegree":5516,"Ġarranged":5517,"Ġenlisted":5518,"Ġbangkok":5519,"Ġmaneater":5520,"Ġslightly":5521,"Ġbombardment":5522,"Ġbenefit":5523,"Ġpacific":5524,"Ġchambers":5525,"Ġprospect":5526,"Ġsimply":5527,"Ġcornwallis":5528,"Ġdharmendra":5529,"Ġvaudeville":5530,"Ġunknown":5531,"Ġflorida":5532,"Ġwebsite":5533,"Ġsmooth":5534,"Ġtrimurti":5535,"Ġfamilies":5536,"Ġlieutenant":5537,"Ġolymp":5538,"Ġmckay":5539,"Ġarihant":5540,"Ġnebraska":5541,"Ġammunition":5542,"Ġsomewhat":5543,"Ġsubcontinent":5544,"Ġziltoid":5545,"Ġgeopyxis":5546,"Ġirregular":5547,"away":5548,"bra":5549,"cers":5550,"ech":5551,"iot":5552,"je":5553,"lav":5554,"lines":5555,"min":5556,"ming":5557,"mouth":5558,"nu":5559,"pass":5560,"rid":5561,"rus":5562,"rations":5563,"ridge":5564,"tig":5565,"uj":5566,"uable":5567,"vara":5568,"vements":5569,"wich":5570,"zew":5571,"Ġid":5572,"Ġere":5573,"Ġtet":5574,"Ġtip":5575,"hel":5576,"hered":5577,"inary":5578,"inations":5579,"incess":5580,"eria":5581,"Ġsom":5582,"Ġoh":5583,"Ġoce":5584,"Ġori":5585,"Ġcov":5586,"Ġcases":5587,"Ġcells":5588,"Ġcoty":5589,"Ġfou":5590,"Ġfought":5591,"Ġfuel":5592,"Ġbed":5593,"Ġbit":5594,"Ġbound":5595,"Ġborder":5596,"itas":5597,"itated":5598,"itled":5599,"oric":5600,"Ġpor":5601,"Ġpill":5602,"Ġpett":5603,"Ġpuck":5604,"isaw":5605,"eness":5606,"arthur":5607,"Ġmall":5608,"ala":5609,"Ġda":5610,"Ġdim":5611,"Ġdig":5612,"Ġdated":5613,"Ġdust":5614,"Ġdang":5615,"Ġhu":5616,"Ġhits":5617,"Ġhund":5618,"Ġtool":5619,"icherry":5620,"Ġlem":5621,"Ġreference":5622,"Ġreactions":5623,"Ġgas":5624,"Ġgained":5625,"oud":5626,"Ġeld":5627,"Ġeighth":5628,"entially":5629,"sted":5630,"stit":5631,"stances":5632,"lected":5633,"ading":5634,"omical":5635,"Ġheard":5636,"imierz":5637,"Ġbeach":5638,"Ġbeings":5639,"Ġasi":5640,"irt":5641,"Ġucl":5642,"otro":5643,"othes":5644,"cht":5645,"iga":5646,"uty":5647,"uter":5648,"utional":5649,"Ġjason":5650,"Ġseems":5651,"Ġwhit":5652,"Ġvish":5653,"Ġchose":5654,"thm":5655,"Ġkg":5656,"Ġkon":5657,"Ġkore":5658,"Ġkick":5659,"Ġkail":5660,"Ġkev":5661,"Ġkavk":5662,"Ġrat":5663,"Ġring":5664,"Ġrural":5665,"Ġrca":5666,"Ġshin":5667,"Ġshop":5668,"Ġsuicide":5669,"Ġproc":5670,"Ġyell":5671,"iful":5672,"ifice":5673,"Ġrook":5674,"unk":5675,"Ġexchange":5676,"illing":5677,"abh":5678,"Ġunp":5679,"Ġuncon":5680,"uda":5681,"ogues":5682,"Ġclim":5683,"aco":5684,"closed":5685,"Ġscr":5686,"Ġscot":5687,"ignment":5688,"Ġplaystation":5689,"Ġ49":5690,"Ġtext":5691,"Ġcontrib":5692,"Ġcontains":5693,"Ġcontributed":5694,"Ġabilities":5695,"Ġabroad":5696,"Ġintens":5697,"Ġamaz":5698,"Ġenjoy":5699,"Ġcommod":5700,"Ġcoal":5701,"Ġindu":5702,"Ġaground":5703,"Ġ53":5704,"Ġpartially":5705,"Ġdisapp":5706,"Ġdisorder":5707,"Ġrail":5708,"Ġrace":5709,"Ġflame":5710,"Ġformat":5711,"Ġformally":5712,"Ġregist":5713,"Ġblues":5714,"Ġouter":5715,"Ġremark":5716,"kend":5717,"Ġinterp":5718,"Ġtrained":5719,"orship":5720,"Ġ84":5721,"Ġbuy":5722,"Ġknicks":5723,"Ġfourteen":5724,"Ġ700":5725,"Ġpries":5726,"Ġprincess":5727,"Ġconservation":5728,"Ġconspir":5729,"othy":5730,"Ġcenturies":5731,"lands":5732,"Ġ91":5733,"Ġ97":5734,"issed":5735,"Ġsoul":5736,"Ġfollows":5737,"Ġseverely":5738,"yski":5739,"Ġdepth":5740,"Ġdeputy":5741,"Ġleads":5742,"Ġdirection":5743,"Ġsigning":5744,"Ġworldwide":5745,"Ġdefense":5746,"Ġvariation":5747,"Ġdivin":5748,"Ġdiverse":5749,"Ġ1982":5750,"Ġenter":5751,"Ġ1912":5752,"Ġ1916":5753,"Ġ1945":5754,"Ġ1948":5755,"Ġ1949":5756,"Ġvaluable":5757,"Ġdiscip":5758,"Ġreceiving":5759,"Ġowners":5760,"Ġbasement":5761,"Ġports":5762,"Ġportion":5763,"Ġ1928":5764,"aha":5765,"Ġcontinental":5766,"Ġdeveloping":5767,"Ġdescribing":5768,"Ġinspect":5769,"Ġheaded":5770,"Ġdemol":5771,"Ġdemocr":5772,"Ġsuccessor":5773,"Ġgrade":5774,"Ġcollections":5775,"hler":5776,"Ġgives":5777,"Ġuniversal":5778,"Ġuniversities":5779,"Ġromantic":5780,"Ġfootage":5781,"Ġannular":5782,"Ġbelieve":5783,"Ġ1972":5784,"eep":5785,"Ġskel":5786,"Ġconfisc":5787,"Ġopponents":5788,"Ġmoderate":5789,"cope":5790,"Ġperiods":5791,"Ġtried":5792,"archy":5793,"Ġyouth":5794,"booba":5795,"Ġdeliber":5796,"aneously":5797,"Ġbands":5798,"Ġsbf":5799,"Ġsolid":5800,"Ġstatus":5801,"Ġepox":5802,"Ġinvolvement":5803,"Ġwalk":5804,"Ġrequire":5805,"Ġsurvived":5806,"Ġsurviving":5807,"Ġcirculation":5808,"Ġurban":5809,"Ġcollapsed":5810,"Ġjewel":5811,"Ġcamps":5812,"Ġsystems":5813,"Ġdeparted":5814,"Ġsenior":5815,"Ġbegins":5816,"Ġarsenic":5817,"Ġexperiment":5818,"Ġoxide":5819,"Ġcoul":5820,"Ġcoaching":5821,"Ġearliest":5822,"Ġattacked":5823,"Ġ1908":5824,"Ġsignificance":5825,"Ġsulfur":5826,"Ġanger":5827,"Ġcombinations":5828,"Ġbarrows":5829,"Ġneeded":5830,"Ġ1889":5831,"Ġturk":5832,"Ġgrowing":5833,"Ġatlantic":5834,"Ġrecognition":5835,"Ġdefeated":5836,"hyd":5837,"Ġinspiration":5838,"Ġastron":5839,"Ġvilla":5840,"Ġcloser":5841,"Ġestimates":5842,"Ġcastle":5843,"Ġpenet":5844,"Ġaffected":5845,"Ġbiography":5846,"Ġviews":5847,"Ġconduct":5848,"Ġruled":5849,"Ġregarding":5850,"Ġsatisf":5851,"Ġinjured":5852,"Ġsurrounded":5853,"Ġpermission":5854,"Ġmachismo":5855,"Ġassassins":5856,"Ġwooden":5857,"ught":5858,"Ġtheatrical":5859,"Ġbowman":5860,"Ġdeadline":5861,"Ġadams":5862,"Ġconcerns":5863,"Ġresponsibility":5864,"Ġgrown":5865,"Ġbanned":5866,"Ġsearching":5867,"Ġofferings":5868,"Ġelectric":5869,"Ġaware":5870,"Ġgranted":5871,"Ġrequested":5872,"Ġsexuality":5873,"Ġvessel":5874,"Ġmaintained":5875,"Ġpurchase":5876,"Ġbeliefs":5877,"Ġmoralitas":5878,"Ġmacarthur":5879,"Ġchalleng":5880,"Ġstephen":5881,"Ġcategory":5882,"Ġhindi":5883,"Ġashbee":5884,"Ġfeeling":5885,"Ġillustrated":5886,"Ġcasem":5887,"Ġcasual":5888,"Ġhappened":5889,"Ġstructure":5890,"Ġstructures":5891,"Ġlegislation":5892,"Ġalleg":5893,"Ġprohibited":5894,"Ġplatinum":5895,"Ġnormal":5896,"Ġphotographs":5897,"Ġsouthe":5898,"Ġhereford":5899,"Ġdemonstrated":5900,"Ġbaby":5901,"Ġweekend":5902,"Ġbrigade":5903,"Ġfresh":5904,"Ġmartin":5905,"Ġanthrop":5906,"Ġjarvis":5907,"Ġpursue":5908,"Ġeliminated":5909,"aurus":5910,"Ġtemper":5911,"Ġtellicherry":5912,"Ġwrong":5913,"Ġwounded":5914,"Ġbehavi":5915,"Ġessential":5916,"Ġdorothy":5917,"Ġrepeated":5918,"Ġanupong":5919,"Ġchaos":5920,"Ġadaptation":5921,"Ġabandoned":5922,"Ġmehbooba":5923,"Ġskills":5924,"Ġstrength":5925,"Ġcrowd":5926,"Ġdvd":5927,"Ġtournament":5928,"Ġghost":5929,"Ġannexed":5930,"Ġjacqu":5931,"Ġroughly":5932,"Ġflanked":5933,"Ġexpedition":5934,"Ġgarden":5935,"Ġprotection":5936,"Ġscorer":5937,"Ġunderwent":5938,"Ġpoehler":5939,"Ġcircumstances":5940,"Ġkrakw":5941,"Ġlinga":5942,"Ġresistance":5943,"Ġliberty":5944,"Ġbrutal":5945,"Ġtropical":5946,"Ġscheduled":5947,"Ġocean":5948,"Ġhundred":5949,"Ġvishnu":5950,"Ġkailash":5951,"Ġkavkaz":5952,"Ġyellow":5953,"Ġrookie":5954,"80":5955,"ben":5956,"bur":5957,"bury":5958,"ecess":5959,"easter":5960,"fl":5961,"fir":5962,"fers":5963,"fort":5964,"fect":5965,"greg":5966,"hurst":5967,"iud":5968,"mat":5969,"mid":5970,"ners":5971,"nall":5972,"oom":5973,"pan":5974,"pent":5975,"pri":5976,"rich":5977,"rates":5978,"rised":5979,"uccess":5980,"yan":5981,"zes":5982,"Ġig":5983,"Ġeric":5984,"Ġtum":5985,"Ġtide":5986,"Ġtub":5987,"Ġtact":5988,"Ġtone":5989,"Ġtiss":5990,"Ġtail":5991,"Ġtaugh":5992,"herent":5993,"inz":5994,"eration":5995,"Ġsz":5996,"Ġsle":5997,"Ġsab":5998,"Ġsak":5999,"Ġsie":6000,"Ġsides":6001,"rey":6002,"rect":6003,"Ġwed":6004,"Ġwild":6005,"Ġwick":6006,"Ġcra":6007,"Ġcities":6008,"Ġcards":6009,"Ġcreek":6010,"Ġciud":6011,"Ġfan":6012,"Ġfold":6013,"Ġfreed":6014,"Ġfasc":6015,"Ġbce":6016,"Ġbought":6017,"ites":6018,"itude":6019,"itabh":6020,"orated":6021,"orian":6022,"orarily":6023,"Ġpant":6024,"Ġpric":6025,"Ġpier":6026,"Ġinning":6027,"ari":6028,"arp":6029,"Ġml":6030,"Ġmit":6031,"Ġmom":6032,"Ġmos":6033,"Ġmaps":6034,"Ġmounted":6035,"alised":6036,"asy":6037,"Ġdh":6038,"Ġdaco":6039,"Ġhud":6040,"Ġhath":6041,"Ġhull":6042,"Ġhabit":6043,"roit":6044,"rose":6045,"iced":6046,"Ġlod":6047,"Ġlord":6048,"Ġlov":6049,"Ġlock":6050,"Ġlighter":6051,"Ġrene":6052,"Ġnations":6053,"Ġnile":6054,"Ġgle":6055,"Ġgift":6056,"Ġthin":6057,"Ġthread":6058,"iles":6059,"ilized":6060,"olph":6061,"eline":6062,"lete":6063,"adic":6064,"aduri":6065,"Ġwasn":6066,"aments":6067,"Ġonto":6068,"oma":6069,"oms":6070,"Ġstu":6071,"Ġstony":6072,"Ġstring":6073,"Ġsthetic":6074,"Ġforth":6075,"Ġbear":6076,"Ġbeam":6077,"lying":6078,"otion":6079,"char":6080,"chcock":6081,"ivals":6082,"ersey":6083,"Ġancest":6084,"Ġjay":6085,"Ġjones":6086,"Ġjersey":6087,"umn":6088,"Ġsect":6089,"usic":6090,"Ġveter":6091,"terial":6092,"Ġcho":6093,"Ġchal":6094,"Ġchos":6095,"emark":6096,"Ġkh":6097,"Ġkate":6098,"Ġkaz":6099,"agu":6100,"Ġrar":6101,"Ġrash":6102,"oded":6103,"Ġshif":6104,"Ġcomic":6105,"Ġsupre":6106,"Ġprol":6107,"Ġyield":6108,"Ġarthur":6109,"Ġarterial":6110,"Ġneut":6111,"Ġneither":6112,"Ġrol":6113,"Ġrot":6114,"Ġrow":6115,"unt":6116,"Ġexclud":6117,"Ġorchest":6118,"Ġlee":6119,"Ġleop":6120,"pting":6121,"ardo":6122,"opl":6123,"opal":6124,"Ġarena":6125,"Ġnothing":6126,"Ġcloth":6127,"Ġallen":6128,"acu":6129,"Ġ34":6130,"ours":6131,"asters":6132,"Ġrecon":6133,"Ġreconstruction":6134,"Ġworn":6135,"Ġworsh":6136,"Ġscat":6137,"ella":6138,"rane":6139,"Ġ46":6140,"Ġcontained":6141,"Ġaboard":6142,"Ġinterse":6143,"Ġamph":6144,"Ġamitabh":6145,"Ġairworth":6146,"Ġ55":6147,"Ġcausing":6148,"Ġcaught":6149,"Ġparties":6150,"Ġspector":6151,"Ġspeech":6152,"aching":6153,"ffen":6154,"Ġresemble":6155,"Ġotherwise":6156,"izing":6157,"Ġups":6158,"Ġupgr":6159,"phs":6160,"Ġsecured":6161,"Ġformal":6162,"ibly":6163,"Ġregurg":6164,"Ġevil":6165,"Ġevacu":6166,"Ġboat":6167,"Ġbobc":6168,"Ġteammates":6169,"key":6170,"Ġinterim":6171,"Ġintermedi":6172,"Ġinterchange":6173,"Ġgenre":6174,"Ġgenres":6175,"Ġ63":6176,"Ġweak":6177,"Ġweight":6178,"Ġcharges":6179,"Ġ82":6180,"Ġ89":6181,"Ġcargo":6182,"Ġknig":6183,"Ġretained":6184,"Ġretiring":6185,"Ġfourteenth":6186,"Ġjoining":6187,"Ġproduct":6188,"Ġproducers":6189,"Ġsomeone":6190,"Ġpriest":6191,"reness":6192,"oney":6193,"Ġmaid":6194,"Ġcann":6195,"Ġconsc":6196,"Ġtowns":6197,"Ġarmament":6198,"Ġphyl":6199,"Ġinstru":6200,"Ġ93":6201,"Ġ96":6202,"Ġasserted":6203,"nington":6204,"Ġwritings":6205,"Ġhowson":6206,"Ġsupposed":6207,"Ġsigns":6208,"Ġappears":6209,"Ġoperate":6210,"Ġ1989":6211,"Ġentering":6212,"Ġstudying":6213,"Ġ1947":6214,"Ġguild":6215,"Ġdecisions":6216,"Ġtransl":6217,"Ġtransform":6218,"Ġslab":6219,"Ġclassical":6220,"Ġbasanti":6221,"Ġsets":6222,"Ġ1921":6223,"Ġtermed":6224,"anks":6225,"Ġconstantly":6226,"roll":6227,"Ġstarring":6228,"Ġpopul":6229,"Ġ150":6230,"Ġsimult":6231,"Ġdemo":6232,"Ġdemon":6233,"Ġshowing":6234,"Ġautom":6235,"Ġjunta":6236,"Ġoccasion":6237,"Ġhym":6238,"Ġlisting":6239,"Ġdifference":6240,"Ġpatri":6241,"Ġgeffen":6242,"Ġ1959":6243,"Ġsynonym":6244,"Ġ130":6245,"Ġclubs":6246,"Ġconfl":6247,"Ġweekly":6248,"Ġopposed":6249,"Ġtrademark":6250,"Ġmorgan":6251,"Ġtemporarily":6252,"Ġbattlefield":6253,"Ġtotten":6254,"Ġbulloch":6255,"Ġrunning":6256,"Ġfleetwood":6257,"Ġcheck":6258,"Ġukrain":6259,"Ġsounds":6260,"Ġcorruption":6261,"Ġaeropl":6262,"Ġsitting":6263,"Ġmidfield":6264,"Ġpromote":6265,"Ġpromotional":6266,"Ġsolely":6267,"Ġdebate":6268,"Ġ1964":6269,"Ġvisit":6270,"Ġ1863":6271,"Ġstatues":6272,"Ġprotected":6273,"Ġescape":6274,"Ġepit":6275,"Ġreplacing":6276,"Ġcommercials":6277,"veland":6278,"Ġlabros":6279,"Ġversions":6280,"Ġcircuit":6281,"Ġjews":6282,"Ġconvey":6283,"Ġpraka":6284,"Ġpitch":6285,"Ġpitched":6286,"Ġadmitted":6287,"Ġmints":6288,"Ġhitchcock":6289,"Ġsung":6290,"ombe":6291,"Ġsilent":6292,"Ġdetroit":6293,"Ġcuts":6294,"Ġstrongly":6295,"Ġcrash":6296,"Ġcrimin":6297,"Ġsubmitted":6298,"Ġpersonality":6299,"Ġfacing":6300,"Ġinterests":6301,"Ġfunds":6302,"Ġfundament":6303,"Ġstream":6304,"Ġdecline":6305,"Ġhygroscopic":6306,"Ġdrinking":6307,"Ġclaiming":6308,"Ġtreatment":6309,"Ġclean":6310,"Ġcleveland":6311,"Ġsubstrate":6312,"Ġattempting":6313,"Ġapplications":6314,"Ġimprove":6315,"Ġlegacy":6316,"Ġdougl":6317,"Ġhonorary":6318,"Ġfocused":6319,"Ġreader":6320,"Ġfragments":6321,"Ġrevolutionary":6322,"Ġcredit":6323,"Ġcrews":6324,"Ġeyes":6325,"Ġverte":6326,"Ġkurfr":6327,"Ġ1853":6328,"body":6329,"Ġbhaduri":6330,"Ġpetrie":6331,"Ġpredomin":6332,"Ġpredecess":6333,"Ġmalini":6334,"Ġylides":6335,"Ġensure":6336,"Ġinstrument":6337,"Ġepisodes":6338,"Ġarchitecture":6339,"Ġwider":6340,"Ġfrig":6341,"Ġtalent":6342,"Ġseeing":6343,"Ġpunch":6344,"Ġgiant":6345,"Ġstanisaw":6346,"Ġnegative":6347,"Ġflowers":6348,"Ġultimate":6349,"Ġceremon":6350,"Ġdunnington":6351,"Ġnazis":6352,"Ġgrosser":6353,"Ġgrossing":6354,"Ġstopped":6355,"Ġunsuccess":6356,"Ġnewspapers":6357,"Ġindependence":6358,"autla":6359,"Ġmaximus":6360,"Ġcurrently":6361,"Ġcroatian":6362,"Ġjapanese":6363,"Ġsculptures":6364,"Ġsources":6365,"Ġchallenge":6366,"Ġhornets":6367,"Ġgallian":6368,"Ġproblem":6369,"Ġpaintings":6370,"Ġdubious":6371,"Ġstayed":6372,"Ġalleged":6373,"Ġscientific":6374,"Ġprinting":6375,"Ġgregorian":6376,"Ġsoutheast":6377,"Ġbranch":6378,"Ġdialogues":6379,"Ġalternative":6380,"Ġoversaw":6381,"Ġfalse":6382,"Ġpainted":6383,"Ġbobby":6384,"Ġaccomplished":6385,"Ġswallowing":6386,"Ġdocumentary":6387,"Ġaccompanied":6388,"Ġpistons":6389,"Ġthriller":6390,"Ġfunerary":6391,"Ġbattlecruisers":6392,"Ġdelivery":6393,"Ġagricultural":6394,"Ġrodman":6395,"Ġamendment":6396,"Ġrestrictions":6397,"Ġcolonel":6398,"Ġhydro":6399,"Ġsketch":6400,"Ġrecommended":6401,"Ġattracted":6402,"Ġdistinguished":6403,"Ġpassengers":6404,"Ġchestn":6405,"Ġadministration":6406,"Ġawareness":6407,"Ġcelebrity":6408,"Ġrapidly":6409,"Ġarabic":6410,"Ġcuautla":6411,"Ġeagle":6412,"Ġjoseph":6413,"Ġatenism":6414,"Ġisolated":6415,"Ġrafael":6416,"jeev":6417,"Ġireland":6418,"Ġottawa":6419,"Ġcaval":6420,"Ġcrescent":6421,"Ġvatican":6422,"Ġpercussion":6423,"Ġsplit":6424,"Ġprehistoric":6425,"Ġinterpreted":6426,"Ġexposure":6427,"Ġheadquarters":6428,"Ġconvinced":6429,"Ġcovers":6430,"Ġelder":6431,"Ġdisappoint":6432,"Ġregistered":6433,"Ġinterpret":6434,"Ġpriests":6435,"Ġconspirators":6436,"Ġdivinities":6437,"Ġskeleton":6438,"Ġconfiscated":6439,"Ġcoulson":6440,"Ġcasualties":6441,"Ġbehaviour":6442,"Ġtaught":6443,"Ġciudad":6444,"Ġpanthe":6445,"Ġhathor":6446,"Ġchosen":6447,"Ġairworthiness":6448,"Ġlabrosaurus":6449,"Ġdouglas":6450,"Ġkurfrst":6451,"Ġunsuccessful":6452,"22":6453,"aels":6454,"bre":6455,"bid":6456,"bound":6457,"cor":6458,"cou":6459,"crib":6460,"cret":6461,"da":6462,"ex":6463,"eor":6464,"ees":6465,"gn":6466,"gation":6467,"hm":6468,"iences":6469,"jad":6470,"ko":6471,"los":6472,"lake":6473,"mad":6474,"math":6475,"mosp":6476,"music":6477,"oo":6478,"sol":6479,"vation":6480,"varn":6481,"wa":6482,"where":6483,"yst":6484,"ych":6485,"yers":6486,"yard":6487,"yond":6488,"zz":6489,"Ġtall":6490,"Ġtry":6491,"Ġtrying":6492,"Ġtatt":6493,"inet":6494,"inery":6495,"inently":6496,"Ġtherop":6497,"erated":6498,"erning":6499,"Ġsic":6500,"Ġsens":6501,"onic":6502,"onent":6503,"Ġwings":6504,"eding":6505,"Ġol":6506,"Ġot":6507,"Ġcell":6508,"Ġcry":6509,"Ġcelt":6510,"Ġfost":6511,"Ġfast":6512,"Ġfine":6513,"Ġfib":6514,"Ġfash":6515,"aten":6516,"Ġbes":6517,"Ġbrick":6518,"Ġbapt":6519,"itively":6520,"oration":6521,"Ġps":6522,"Ġpt":6523,"Ġpine":6524,"Ġpure":6525,"Ġpage":6526,"Ġpull":6527,"Ġphen":6528,"enue":6529,"Ġmig":6530,"Ġmoth":6531,"Ġmumm":6532,"anian":6533,"ashed":6534,"Ġdil":6535,"Ġdom":6536,"Ġdog":6537,"Ġdors":6538,"Ġdenn":6539,"Ġdrop":6540,"Ġhaw":6541,"rot":6542,"Ġtooth":6543,"Ġtopped":6544,"Ġtoler":6545,"icip":6546,"icient":6547,"Ġlt":6548,"Ġlomb":6549,"Ġlanka":6550,"Ġreed":6551,"Ġreich":6552,"Ġrejo":6553,"Ġnr":6554,"Ġnom":6555,"Ġnach":6556,"Ġnone":6557,"Ġniel":6558,"Ġnike":6559,"Ġgate":6560,"Ġghet":6561,"Ġec":6562,"Ġeart":6563,"iled":6564,"illy":6565,"entire":6566,"ola":6567,"elve":6568,"stone":6569,"Ġstro":6570,"Ġstern":6571,"Ġheat":6572,"imony":6573,"imeter":6574,"Ġbeating":6575,"Ġbeau":6576,"Ġbeyond":6577,"urre":6578,"ira":6579,"irid":6580,"lyn":6581,"Ġutil":6582,"oto":6583,"Ġalt":6584,"idium":6585,"cha":6586,"cho":6587,"chant":6588,"utation":6589,"ayan":6590,"Ġanime":6591,"Ġjr":6592,"Ġjure":6593,"Ġjup":6594,"Ġjump":6595,"uments":6596,"Ġseem":6597,"Ġatrox":6598,"Ġatmosp":6599,"uses":6600,"Ġconce":6601,"Ġconqu":6602,"Ġconform":6603,"Ġconsequ":6604,"Ġchop":6605,"osph":6606,"empl":6607,"Ġkil":6608,"Ġrib":6609,"Ġrivers":6610,"Ġryan":6611,"Ġsharp":6612,"Ġsuvarn":6613,"Ġprove":6614,"Ġproof":6615,"Ġyard":6616,"ifa":6617,"ifically":6618,"iform":6619,"Ġpla":6620,"Ġplates":6621,"season":6622,"ordinated":6623,"Ġros":6624,"Ġroll":6625,"Ġrovers":6626,"Ġroster":6627,"ppy":6628,"Ġlege":6629,"Ġleaf":6630,"illes":6631,"alling":6632,"allel":6633,"arten":6634,"berg":6635,"arded":6636,"abhum":6637,"Ġunc":6638,"Ġunrest":6639,"aka":6640,"oper":6641,"ishvara":6642,"iance":6643,"Ġnotably":6644,"Ġclust":6645,"acle":6646,"acles":6647,"Ġtwelve":6648,"astopol":6649,"Ġfeud":6650,"apa":6651,"apes":6652,"Ġscar":6653,"Ġpola":6654,"Ġperce":6655,"Ġperfect":6656,"Ġaftermath":6657,"Ġplays":6658,"usted":6659,"ocaly":6660,"Ġadri":6661,"Ġnewsted":6662,"Ġtimor":6663,"Ġconte":6664,"Ġabund":6665,"Ġinters":6666,"Ġmans":6667,"Ġamounts":6668,"Ġamjad":6669,"Ġenergy":6670,"Ġenclosed":6671,"Ġreputation":6672,"Ġcoined":6673,"Ġagree":6674,"Ġimag":6675,"oking":6676,"Ġspend":6677,"Ġdisg":6678,"Ġfilming":6679,"Ġspace":6680,"Ġihl":6681,"phael":6682,"Ġmuslim":6683,"Ġfinance":6684,"Ġsecuring":6685,"Ġunderstanding":6686,"Ġray":6687,"Ġracing":6688,"Ġraphael":6689,"Ġflu":6690,"Ġflot":6691,"Ġflix":6692,"Ġforming":6693,"Ġregister":6694,"Ġblown":6695,"Ġblaz":6696,"Ġoutl":6697,"Ġoutages":6698,"ricted":6699,"Ġwarm":6700,"Ġwarne":6701,"Ġwarned":6702,"keeper":6703,"Ġinterned":6704,"Ġtraits":6705,"Ġ69":6706,"Ġspeculation":6707,"Ġcarson":6708,"Ġknocked":6709,"Ġendors":6710,"Ġ72":6711,"Ġproduces":6712,"Ġminer":6713,"rents":6714,"onega":6715,"Ġpublis":6716,"Ġmaury":6717,"Ġconsult":6718,"Ġmeteor":6719,"Ġnumism":6720,"Ġattrib":6721,"Ġattached":6722,"Ġimpression":6723,"Ġphase":6724,"Ġphosph":6725,"Ġmarc":6726,"Ġmarg":6727,"Ġmario":6728,"Ġsymp":6729,"Ġsydney":6730,"Ġempt":6731,"Ġemily":6732,"Ġinstalled":6733,"Ġbetaine":6734,"icki":6735,"Ġassess":6736,"Ġsongwrit":6737,"Ġpeaking":6738,"Ġpreserved":6739,"Ġpreservation":6740,"Ġyorkshire":6741,"ysaw":6742,"Ġsoil":6743,"Ġsoft":6744,"Ġsoorm":6745,"Ġincident":6746,"Ġleadership":6747,"Ġelector":6748,"iewicz":6749,"Ġque":6750,"Ġsignal":6751,"Ġsinging":6752,"Ġoperated":6753,"ugg":6754,"Ġ1983":6755,"Ġstudied":6756,"Ġengage":6757,"Ġengines":6758,"Ġ1946":6759,"Ġprompted":6760,"Ġedge":6761,"Ġdecre":6762,"Ġdecomm":6763,"Ġadding":6764,"Ġmarks":6765,"Ġrockef":6766,"Ġbests":6767,"Ġreceive":6768,"Ġcriteria":6769,"Ġorders":6770,"Ġhumor":6771,"Ġ1932":6772,"Ġ1933":6773,"Ġ1934":6774,"Ġexpress":6775,"Ġexposed":6776,"Ġexpensive":6777,"Ġdesigns":6778,"Ġreturns":6779,"Ġsteals":6780,"Ġsteps":6781,"Ġcontinuous":6782,"Ġparod":6783,"Ġposters":6784,"Ġposthum":6785,"Ġstarts":6786,"Ġsuccessive":6787,"Ġautumn":6788,"Ġsupporters":6789,"ception":6790,"Ġhyp":6791,"Ġlisten":6792,"utionary":6793,"Ġcolleagues":6794,"Ġ1957":6795,"Ġorganic":6796,"Ġorganisation":6797,"Ġconsiders":6798,"Ġ110":6799,"Ġsyncret":6800,"Ġelite":6801,"Ġsevastopol":6802,"Ġyounger":6803,"Ġ179":6804,"Ġannivers":6805,"Ġapproved":6806,"Ġperformer":6807,"Ġassociations":6808,"Ġtriple":6809,"Ġtrioxide":6810,"Ġpasses":6811,"Ġpassage":6812,"Ġcalc":6813,"Ġcalam":6814,"Ġcalif":6815,"Ġadvent":6816,"Ġsounding":6817,"Ġcorrect":6818,"Ġislands":6819,"Ġauthors":6820,"Ġaccordingly":6821,"Ġhollywood":6822,"Ġsole":6823,"Ġrealm":6824,"Ġrealized":6825,"Ġ1968":6826,"Ġcommunication":6827,"ometric":6828,"Ġalien":6829,"Ġstatue":6830,"Ġepic":6831,"Ġturning":6832,"Ġfemales":6833,"Ġforever":6834,"Ġdeaths":6835,"Ġconvoy":6836,"Ġcurt":6837,"Ġdeparture":6838,"Ġpossibility":6839,"Ġpossession":6840,"Ġexplos":6841,"Ġexplains":6842,"Ġcommonly":6843,"Ġcapture":6844,"Ġinternal":6845,"Ġhistorians":6846,"Ġmerge":6847,"Ġmerry":6848,"Ġgray":6849,"Ġshoulder":6850,"Ġcolumbia":6851,"ropol":6852,"Ġroads":6853,"Ġsanct":6854,"Ġwindow":6855,"Ġattendants":6856,"Ġmichaels":6857,"Ġvictim":6858,"Ġcivilian":6859,"Ġ1902":6860,"Ġ1905":6861,"Ġ1909":6862,"Ġstriking":6863,"Ġrounds":6864,"Ġeffective":6865,"Ġveh":6866,"Ġsubstant":6867,"Ġsulfonium":6868,"Ġtransportation":6869,"Ġviolation":6870,"Ġinformed":6871,"Ġjourney":6872,"Ġ1880":6873,"Ġblocks":6874,"Ġfailing":6875,"Ġfailure":6876,"Ġ1879":6877,"Ġmoon":6878,"Ġmoore":6879,"Ġready":6880,"Ġrichards":6881,"Ġaffairs":6882,"Ġprobability":6883,"iii":6884,"Ġgaruda":6885,"Ġrussell":6886,"Ġcouple":6887,"Ġmcentire":6888,"Ġmotif":6889,"racks":6890,"Ġwaters":6891,"Ġwatching":6892,"Ġcredits":6893,"Ġfactors":6894,"Ġmachinery":6895,"Ġchampionships":6896,"Ġkeeper":6897,"Ġruined":6898,"Ġ1850":6899,"Ġdoesn":6900,"Ġmalone":6901,"Ġmethods":6902,"Ġphysic":6903,"Ġapproaching":6904,"Ġfiction":6905,"Ġduty":6906,"Ġduties":6907,"Ġgambling":6908,"Ġargues":6909,"Ġconstruct":6910,"Ġfocusing":6911,"Ġengineering":6912,"Ġmeasuring":6913,"Ġantiquarian":6914,"Ġelectron":6915,"Ġeconomy":6916,"Ġstopping":6917,"Ġvancou":6918,"Ġchapter":6919,"Ġcinemas":6920,"Ġbanks":6921,"Ġdrove":6922,"Ġdropped":6923,"Ġdiscussion":6924,"Ġpakistani":6925,"Ġkinderg":6926,"Ġcomposer":6927,"Ġmaintain":6928,"Ġprevented":6929,"Ġlibraries":6930,"going":6931,"Ġblew":6932,"Ġbudd":6933,"Ġpleas":6934,"Ġbeaten":6935,"Ġopposing":6936,"Ġwait":6937,"Ġwreath":6938,"Ġwithdrew":6939,"Ġvirt":6940,"Ġvirgin":6941,"Ġdismissed":6942,"Ġslowly":6943,"Ġescaped":6944,"Ġfrequent":6945,"chester":6946,"Ġaimed":6947,"Ġpushed":6948,"Ġpushing":6949,"Ġscientists":6950,"Ġweapon":6951,"Ġpoorly":6952,"Ġnormally":6953,"Ġconsiderable":6954,"Ġdetermine":6955,"Ġdetermined":6956,"Ġtiger":6957,"Ġbranched":6958,"Ġlearned":6959,"Ġemotional":6960,"Ġeleven":6961,"Ġcounterp":6962,"Ġmobile":6963,"Ġdreamworks":6964,"Ġweehaw":6965,"Ġaccomplish":6966,"Ġconcentration":6967,"Ġreflecting":6968,"Ġsurrendered":6969,"Ġomn":6970,"Ġlayers":6971,"Ġreforms":6972,"Ġsundance":6973,"Ġspirits":6974,"Ġapparently":6975,"Ġfuneral":6976,"Ġbattlecruiser":6977,"Ġcyclone":6978,"Ġagriculture":6979,"Ġsegment":6980,"Ġflintlock":6981,"Ġsupplies":6982,"Ġdefenders":6983,"Ġbringing":6984,"Ġmicrolights":6985,"Ġencourag":6986,"Ġbriefly":6987,"Ġnickn":6988,"Ġseeking":6989,"Ġmanifestations":6990,"Ġpremiere":6991,"Ġsettled":6992,"Ġlicensing":6993,"Ġdreadnought":6994,"Ġthousands":6995,"Ġsarah":6996,"Ġrendition":6997,"Ġanchor":6998,"Ġvicinity":6999,"Ġconnection":7000,"Ġadvertis":7001,"Ġconfirmed":7002,"Ġreinforcements":7003,"Ġselection":7004,"Ġhartford":7005,"Ġgusts":7006,"Ġbeautiful":7007,"oselective":7008,"Ġkaiser":7009,"Ġexclusively":7010,"Ġagreement":7011,"Ġagustn":7012,"Ġspanish":7013,"Ġmechanism":7014,"Ġoccasions":7015,"Ġcorresponding":7016,"Ġlandscape":7017,"Ġresponded":7018,"Ġconversely":7019,"Ġtask":7020,"Ġhanneman":7021,"Ġreversibility":7022,"Ġengraver":7023,"Ġguidance":7024,"Ġelbow":7025,"Ġpoliticians":7026,"Ġsacrifice":7027,"Ġdahlonega":7028,"tigall":7029,"Ġporfir":7030,"Ġpillars":7031,"Ġpettit":7032,"Ġmallory":7033,"Ġtools":7034,"Ġkonkan":7035,"Ġkevin":7036,"Ġratings":7037,"Ġcommodore":7038,"Ġepoxides":7039,"burgh":7040,"Ġtubes":7041,"Ġhudson":7042,"Ġlodge":7043,"Ġgleba":7044,"Ġsupreme":7045,"ranean":7046,"Ġbobcats":7047,"Ġconscious":7048,"Ġsimultaneously":7049,"Ġoccasionally":7050,"Ġconflict":7051,"Ġukrainian":7052,"Ġfundamental":7053,"Ġtattnall":7054,"Ġtheropod":7055,"Ġfashion":7056,"Ġnachtigall":7057,"Ġnielsen":7058,"Ġearthen":7059,"Ġjurez":7060,"Ġsuvarnabhum":7061,"Ġsoorma":7062,"Ġdecommission":7063,"Ġrockefeller":7064,"Ġvancouver":7065,"Ġkindergarten":7066,"Ġvirginia":7067,"Ġweehawken":7068,"Ġsuvarnabhumi":7069,"50":7070,"60":7071,"aol":7072,"bel":7073,"bour":7074,"bles":7075,"brae":7076,"cceed":7077,"dd":7078,"dress":7079,"fe":7080,"gers":7081,"gency":7082,"hire":7083,"hiz":7084,"ires":7085,"lers":7086,"lore":7087,"lten":7088,"mar":7089,"mina":7090,"nn":7091,"nic":7092,"oj":7093,"pse":7094,"rat":7095,"rating":7096,"rise":7097,"rarian":7098,"tos":7099,"ua":7100,"ven":7101,"vised":7102,"wed":7103,"watch":7104,"ye":7105,"ym":7106,"Ġnd":7107,"Ġtan":7108,"Ġtam":7109,"Ġtart":7110,"inal":7111,"inosaur":7112,"Ġsq":7113,"Ġsin":7114,"Ġsess":7115,"Ġsank":7116,"rell":7117,"Ġora":7118,"Ġores":7119,"Ġcd":7120,"Ġcess":7121,"Ġcran":7122,"Ġcous":7123,"Ġcris":7124,"Ġcamb":7125,"Ġfant":7126,"Ġfert":7127,"ato":7128,"atra":7129,"atile":7130,"Ġbore":7131,"Ġbure":7132,"Ġbold":7133,"Ġbry":7134,"Ġbells":7135,"Ġbrian":7136,"ito":7137,"itt":7138,"orough":7139,"Ġpu":7140,"Ġpy":7141,"Ġpul":7142,"Ġpap":7143,"Ġpron":7144,"Ġpounds":7145,"Ġinherent":7146,"aris":7147,"Ġmist":7148,"anay":7149,"alion":7150,"ingly":7151,"astern":7152,"Ġdave":7153,"Ġdressed":7154,"Ġdna":7155,"Ġdwar":7156,"Ġdipl":7157,"Ġdinosaur":7158,"Ġandh":7159,"Ġhire":7160,"Ġhamp":7161,"room":7162,"roph":7163,"Ġtomas":7164,"Ġtodd":7165,"iche":7166,"icate":7167,"Ġlen":7168,"Ġlan":7169,"Ġlion":7170,"Ġlith":7171,"Ġrector":7172,"Ġreuter":7173,"Ġnub":7174,"Ġnelly":7175,"Ġgat":7176,"Ġgil":7177,"Ġgam":7178,"Ġgary":7179,"Ġgree":7180,"Ġghar":7181,"Ġthames":7182,"Ġthomp":7183,"Ġthorough":7184,"Ġeu":7185,"ilation":7186,"ilton":7187,"oles":7188,"ellect":7189,"ste":7190,"ada":7191,"adow":7192,"Ġongoing":7193,"omor":7194,"omena":7195,"Ġstor":7196,"Ġsting":7197,"Ġstab":7198,"Ġstup":7199,"Ġstret":7200,"Ġstages":7201,"Ġstories":7202,"Ġstores":7203,"Ġstability":7204,"Ġforbes":7205,"Ġforbid":7206,"iments":7207,"urer":7208,"urra":7209,"urally":7210,"urday":7211,"Ġasc":7212,"oting":7213,"Ġaltered":7214,"Ġalmina":7215,"ider":7216,"chang":7217,"rael":7218,"rays":7219,"raham":7220,"ivia":7221,"eted":7222,"ighed":7223,"utt":7224,"utland":7225,"Ġans":7226,"Ġja":7227,"Ġjos":7228,"Ġjutland":7229,"umption":7230,"Ġsem":7231,"Ġwhy":7232,"Ġatum":7233,"istocr":7234,"Ġvent":7235,"Ġvul":7236,"Ġvint":7237,"Ġvert":7238,"Ġvision":7239,"Ġvote":7240,"Ġconclusion":7241,"Ġcongreg":7242,"Ġ1900":7243,"Ġisles":7244,"Ġisrael":7245,"terly":7246,"Ġchul":7247,"osing":7248,"oslav":7249,"ava":7250,"aven":7251,"Ġki":7252,"Ġket":7253,"Ġkeen":7254,"Ġkelly":7255,"agen":7256,"agara":7257,"Ġris":7258,"Ġric":7259,"Ġrut":7260,"Ġrating":7261,"Ġrpg":7262,"Ġrush":7263,"Ġrsol":7264,"ode":7265,"Ġsud":7266,"Ġsucceed":7267,"Ġyug":7268,"Ġard":7269,"Ġarn":7270,"Ġaristocr":7271,"Ġneigh":7272,"ifact":7273,"Ġplant":7274,"Ġplacing":7275,"sex":7276,"unch":7277,"Ġexisted":7278,"illa":7279,"ichi":7280,"ptic":7281,"pters":7282,"aburra":7283,"Ġunf":7284,"Ġunn":7285,"Ġuncle":7286,"akers":7287,"opher":7288,"antour":7289,"iece":7290,"ieval":7291,"mented":7292,"Ġcler":7293,"Ġclar":7294,"Ġclay":7295,"Ġclothes":7296,"Ġalloy":7297,"Ġallosaur":7298,"Ġallmusic":7299,"acity":7300,"aches":7301,"ourse":7302,"asting":7303,"aph":7304,"appe":7305,"apuri":7306,"Ġscouting":7307,"Ġscapa":7308,"ellion":7309,"Ġpole":7310,"ocity":7311,"Ġtimber":7312,"Ġteen":7313,"Ġteaching":7314,"Ġcontribution":7315,"mann":7316,"Ġabraham":7317,"Ġintent":7318,"Ġintellect":7319,"omech":7320,"Ġmangal":7321,"Ġrepair":7322,"Ġrepairs":7323,"Ġgoe":7324,"Ġgoes":7325,"Ġcoy":7326,"Ġcomprising":7327,"Ġdesert":7328,"Ġagrarian":7329,"oughts":7330,"Ġoffers":7331,"Ġoffsh":7332,"Ġimpl":7333,"okaburra":7334,"Ġairplay":7335,"Ġairline":7336,"Ġ59":7337,"Ġcautionary":7338,"Ġpartition":7339,"Ġspeak":7340,"Ġdisappe":7341,"Ġfilmfare":7342,"Ġspur":7343,"Ġreserve":7344,"izes":7345,"phae":7346,"Ġsecure":7347,"Ġoverc":7348,"Ġunderstand":7349,"Ġraid":7350,"Ġraise":7351,"acted":7352,"Ġflown":7353,"Ġflash":7354,"Ġapg":7355,"Ġmeg":7356,"Ġpregn":7357,"Ġregulated":7358,"Ġbloom":7359,"Ġmorelos":7360,"Ġeve":7361,"rons":7362,"Ġremun":7363,"Ġremove":7364,"Ġmonten":7365,"Ġmonothe":7366,"Ġtrail":7367,"Ġspecifically":7368,"Ġwebb":7369,"Ġ83":7370,"Ġ85":7371,"Ġcole":7372,"Ġcarry":7373,"Ġcarpent":7374,"Ġnoises":7375,"Ġretard":7376,"Ġmind":7377,"rency":7378,"Ġrevival":7379,"Ġrevenge":7380,"Ġrelocated":7381,"Ġaccounts":7382,"Ġmetropol":7383,"Ġimpress":7384,"Ġimposs":7385,"Ġdevon":7386,"Ġdevout":7387,"Ġdevotion":7388,"Ġ99":7389,"Ġ900":7390,"inda":7391,"Ġschmid":7392,"Ġgenerated":7393,"ieth":7394,"ieties":7395,"Ġleaders":7396,"Ġliqu":7397,"Ġliked":7398,"Ġelected":7399,"iewski":7400,"Ġbrobb":7401,"Ġquant":7402,"Ġ09":7403,"Ġdefended":7404,"Ġappeals":7405,"Ġartistic":7406,"Ġartwork":7407,"Ġartifact":7408,"endar":7409,"enders":7410,"Ġdivor":7411,"Ġdoz":7412,"Ġdoctor":7413,"Ġoperating":7414,"Ġbelg":7415,"Ġlarry":7416,"Ġentitled":7417,"Ġengag":7418,"Ġloos":7419,"ornia":7420,"Ġpromul":7421,"Ġpromise":7422,"Ġprominently":7423,"Ġguide":7424,"Ġaddington":7425,"Ġdiscern":7426,"Ġtranscend":7427,"Ġmoves":7428,"Ġdescript":7429,"Ġcouldn":7430,"Ġmainst":7431,"Ġlocations":7432,"Ġbasal":7433,"Ġbasid":7434,"Ġinfinity":7435,"Ġthoughts":7436,"Ġexpand":7437,"Ġexpans":7438,"Ġmillenn":7439,"Ġ102":7440,"atherine":7441,"ĠĠĠĠĠĠĠ":7442,"Ġ157":7443,"Ġbarry":7444,"Ġbarracks":7445,"Ġmyres":7446,"Ġmyster":7447,"Ġmycel":7448,"Ġsimon":7449,"Ġsixteen":7450,"Ġparach":7451,"Ġparallel":7452,"Ġpostc":7453,"Ġinsisted":7454,"Ġmatt":7455,"Ġheaddress":7456,"Ġshowed":7457,"Ġcults":7458,"Ġmedal":7459,"Ġmediter":7460,"Ġmedieval":7461,"Ġdisturb":7462,"Ġ120":7463,"Ġhyphae":7464,"Ġpersons":7465,"Ġpersonally":7466,"Ġpersonified":7467,"Ġavoid":7468,"Ġhell":7469,"Ġpatrol":7470,"Ġmissile":7471,"Ġ1955":7472,"Ġ1956":7473,"Ġexcavate":7474,"Ġtying":7475,"Ġpuri":7476,"Ġconsidering":7477,"Ġsynth":7478,"Ġyoungest":7479,"Ġaustria":7480,"Ġbelieving":7481,"Ġcharacterised":7482,"Ġuseful":7483,"Ġ1971":7484,"Ġapproached":7485,"Ġappropri":7486,"Ġconfused":7487,"Ġstrained":7488,"Ġprovince":7489,"Ġtraditions":7490,"boat":7491,"boards":7492,"Ġdelight":7493,"rington":7494,"seni":7495,"Ġcheese":7496,"Ġchelten":7497,"Ġcourty":7498,"Ġrestricted":7499,"Ġauthored":7500,"offic":7501,"Ġlanded":7502,"Ġlandown":7503,"hens":7504,"Ġswan":7505,"Ġholy":7506,"Ġcommerce":7507,"ographical":7508,"Ġlimantour":7509,"Ġpromoting":7510,"Ġtreated":7511,"Ġ1969":7512,"Ġcatal":7513,"Ġvisible":7514,"Ġ1860":7515,"Ġstrateg":7516,"Ġromano":7517,"Ġcolumn":7518,"Ġinvolves":7519,"Ġwalter":7520,"Ġparent":7521,"Ġallows":7522,"iques":7523,"Ġcircular":7524,"Ġcirculated":7525,"Ġcirculate":7526,"aticus":7527,"Ġconvent":7528,"Ġcomedian":7529,"Ġcruel":7530,"Ġcapacity":7531,"Ġauthorized":7532,"Ġsenate":7533,"Ġradha":7534,"Ġhunwick":7535,"Ġbegun":7536,"Ġcovering":7537,"Ġpresidential":7538,"Ġpitt":7539,"Ġpitching":7540,"Ġhousehold":7541,"Ġcriticized":7542,"Ġoxy":7543,"Ġstoryline":7544,"Ġsunk":7545,"Ġmerchant":7546,"Ġdealership":7547,"Ġbusqu":7548,"Ġfewest":7549,"Ġattendant":7550,"Ġbattalion":7551,"Ġstronger":7552,"Ġlesser":7553,"Ġ1907":7554,"Ġmaterials":7555,"Ġfaces":7556,"Ġfacade":7557,"Ġperspective":7558,"Ġcompeted":7559,"Ġputting":7560,"Ġpottery":7561,"Ġdrunk":7562,"Ġstriker":7563,"Ġclaims":7564,"Ġidentity":7565,"ontin":7566,"Ġhills":7567,"Ġcombat":7568,"Ġcombination":7569,"Ġphotography":7570,"Ġphotograp":7571,"Ġhorse":7572,"Ġimprovements":7573,"Ġmassive":7574,"Ġballistic":7575,"Ġbreakout":7576,"Ġhostile":7577,"Ġvolumes":7578,"Ġ403":7579,"Ġcompanion":7580,"Ġcompanies":7581,"Ġ1874":7582,"Ġreadily":7583,"Ġclosure":7584,"Ġaffili":7585,"Ġpolicies":7586,"ynastic":7587,"Ġbiomech":7588,"Ġmulti":7589,"Ġanimated":7590,"Ġviewed":7591,"Ġruler":7592,"Ġruling":7593,"Ġranking":7594,"Ġtests":7595,"Ġsaturday":7596,"Ġwalls":7597,"Ġduat":7598,"Ġgarn":7599,"Ġchambered":7600,"Ġmcg":7601,"Ġmotor":7602,"Ġmotion":7603,"Ġmotiv":7604,"Ġramgar":7605,"Ġtechniques":7606,"Ġoccurs":7607,"Ġcerat":7608,"Ġritual":7609,"Ġqualified":7610,"Ġcommenting":7611,"Ġ1854":7612,"Ġ1890":7613,"Ġfinds":7614,"Ġmeetings":7615,"Ġliterary":7616,"Ġprotesters":7617,"chel":7618,"Ġbhopal":7619,"Ġpredynastic":7620,"Ġmethodologies":7621,"Ġinstrumental":7622,"Ġbowie":7623,"Ġfavorable":7624,"iusz":7625,"Ġpayne":7626,"Ġdonated":7627,"Ġrebounds":7628,"Ġrebellion":7629,"Ġsubjects":7630,"Ġfitwatch":7631,"Ġlifet":7632,"Ġlifted":7633,"Ġseparated":7634,"Ġconverting":7635,"Ġexception":7636,"Ġcabinet":7637,"Ġmeasures":7638,"Ġachieve":7639,"Ġwilliams":7640,"Ġdropping":7641,"Ġpolythe":7642,"Ġencoun":7643,"Ġdisplayed":7644,"Ġdiscussed":7645,"Ġderived":7646,"Ġkerb":7647,"Ġexhibited":7648,"Ġcomposition":7649,"Ġxiii":7650,"Ġplease":7651,"Ġemergency":7652,"Ġseventeen":7653,"load":7654,"Ġsuspect":7655,"Ġsuspend":7656,"Ġcategories":7657,"Ġlinked":7658,"Ġindicate":7659,"Ġindicates":7660,"Ġ1806":7661,"Ġwilm":7662,"Ġwilhel":7663,"Ġbadly":7664,"Ġmyself":7665,"Ġandrews":7666,"Ġreferences":7667,"Ġdismember":7668,"Ġcosmos":7669,"Ġtribute":7670,"Ġninet":7671,"Ġprinted":7672,"Ġemphasised":7673,"Ġsailed":7674,"Ġsailors":7675,"Ġbridgeport":7676,"Ġgregory":7677,"Ġstruggle":7678,"Ġfolklore":7679,"otype":7680,"Ġdeployed":7681,"Ġdeployment":7682,"opolis":7683,"Ġsurpass":7684,"Ġemotion":7685,"Ġbelonged":7686,"Ġbelonging":7687,"Ġsubstituted":7688,"Ġinnings":7689,"Ġmesolithic":7690,"Ġschedule":7691,"Ġenemies":7692,"Ġcompletion":7693,"Ġconcentrated":7694,"Ġswallowed":7695,"Ġtaxonomy":7696,"Ġaccompanying":7697,"Ġpiston":7698,"Ġmutual":7699,"Ġdrums":7700,"Ġsundial":7701,"Ġpreparation":7702,"Ġregulatory":7703,"Ġembarked":7704,"Ġeliminate":7705,"Ġdelivered":7706,"Ġconnecting":7707,"Ġazirid":7708,"Ġhoused":7709,"Ġhouses":7710,"Ġambient":7711,"Ġpremises":7712,"Ġconstitution":7713,"Ġencouraged":7714,"Ġtrouble":7715,"Ġsortie":7716,"Ġdepending":7717,"Ġrudolph":7718,"estyle":7719,"Ġpremiered":7720,"Ġglasses":7721,"Ġathletic":7722,"Ġdreadnoughts":7723,"Ġbonus":7724,"Ġdrugs":7725,"Ġhamilton":7726,"Ġethnic":7727,"Ġstalin":7728,"Ġkookaburra":7729,"Ġrhymes":7730,"Ġrhythm":7731,"Ġshutout":7732,"Ġornament":7733,"Ġpercentage":7734,"Ġaggressive":7735,"Ġfilmmaker":7736,"Ġincorporated":7737,"Ġwithdraw":7738,"Ġcustomers":7739,"Ġinvestigation":7740,"Ġtorture":7741,"Ġwitness":7742,"Ġjimmad":7743,"Ġenantioselective":7744,"Ġpreceding":7745,"Ġminimal":7746,"Ġdeprecating":7747,"Ġnorthwest":7748,"Ġproposal":7749,"Ġprofessionally":7750,"Ġdiagnosed":7751,"Ġpharaohs":7752,"trak":7753,"Ġsarsens":7754,"Ġlester":7755,"Ġridot":7756,"Ġrubin":7757,"Ġcontroversy":7758,"Ġrescue":7759,"Ġprincip":7760,"Ġcorporation":7761,"Ġintroduction":7762,"Ġabsorbed":7763,"Ġnegoti":7764,"Ġodoratus":7765,"Ġalexander":7766,"zewski":7767,"Ġdigital":7768,"Ġlemon":7769,"stitutional":7770,"Ġasiaticus":7771,"Ġprocured":7772,"Ġunconstitutional":7773,"Ġscrut":7774,"Ġenjoyed":7775,"Ġrailroad":7776,"Ġdiscipline":7777,"Ġjewelry":7778,"Ġastronomical":7779,"Ġchallenges":7780,"Ġcasemate":7781,"Ġigual":7782,"Ġtissue":7783,"Ġsiege":7784,"Ġwickford":7785,"Ġfreedom":7786,"Ġmlb":7787,"Ġmitche":7788,"Ġstuart":7789,"Ġkazimierz":7790,"Ġneutral":7791,"Ġrolling":7792,"Ġleopold":7793,"Ġworshipped":7794,"Ġscattered":7795,"Ġintersection":7796,"Ġupset":7797,"Ġintermediate":7798,"Ġmaidan":7799,"Ġphylogen":7800,"Ġhymns":7801,"Ġmidfielder":7802,"Ġcriminal":7803,"Ġvertebrae":7804,"Ġceremonies":7805,"Ġchestnuts":7806,"cribed":7807,"Ġphenomena":7808,"Ġlombardo":7809,"Ġghettos":7810,"Ġbeauf":7811,"urrection":7812,"Ġchopra":7813,"Ġlegend":7814,"Ġfeudal":7815,"Ġcontext":7816,"Ġmauryas":7817,"Ġmeteorological":7818,"Ġphosphorus":7819,"Ġbestselling":7820,"Ġposthumously":7821,"Ġanniversary":7822,"Ġcalculated":7823,"Ġcalifornia":7824,"Ġvirtually":7825,"Ġadvertisement":7826,"Ġdwarf":7827,"Ġhampshire":7828,"Ġgharapuri":7829,"Ġthompson":7830,"Ġstupa":7831,"Ġvintage":7832,"Ġrsolue":7833,"Ġyugoslav":7834,"Ġmangalore":7835,"Ġoffshore":7836,"Ġmetropolitan":7837,"Ġimpossible":7838,"Ġschmidt":7839,"Ġbrobbel":7840,"Ġmysterious":7841,"Ġmediterranean":7842,"Ġcheltenham":7843,"Ġstrategic":7844,"Ġramgarh":7845,"Ġwilhelm":7846,"Ġjimmadseni":7847,"69":7848,"aq":7849,"aug":7850,"cz":7851,"combe":7852,"do":7853,"die":7854,"dale":7855,"fis":7856,"full":7857,"friend":7858,"gon":7859,"gow":7860,"hran":7861,"house":7862,"hyl":7863,"hma":7864,"hroom":7865,"iy":7866,"ients":7867,"iens":7868,"iya":7869,"ju":7870,"jowa":7871,"kowski":7872,"lc":7873,"lan":7874,"low":7875,"mo":7876,"mis":7877,"mark":7878,"mely":7879,"no":7880,"now":7881,"nite":7882,"nicki":7883,"niewski":7884,"oant":7885,"oons":7886,"pa":7887,"pm":7888,"point":7889,"rig":7890,"rors":7891,"rator":7892,"rze":7893,"ses":7894,"uge":7895,"under":7896,"uky":7897,"uki":7898,"vi":7899,"vin":7900,"vings":7901,"ww":7902,"yd":7903,"ycl":7904,"zer":7905,"Ġtin":7906,"Ġtag":7907,"Ġties":7908,"Ġtight":7909,"Ġtast":7910,"Ġtamp":7911,"Ġtorn":7912,"Ġtina":7913,"Ġtuck":7914,"Ġtells":7915,"Ġtiny":7916,"Ġae":7917,"Ġau":7918,"Ġaes":7919,"Ġack":7920,"Ġahead":7921,"Ġarose":7922,"inus":7923,"inisc":7924,"Ġtheories":7925,"eras":7926,"erver":7927,"erable":7928,"erias":7929,"Ġsale":7930,"onal":7931,"Ġwore":7932,"Ġwants":7933,"Ġopt":7934,"Ġovation":7935,"Ġcad":7936,"Ġcot":7937,"Ġcul":7938,"Ġcass":7939,"Ġcraft":7940,"nded":7941,"Ġfo":7942,"Ġfro":7943,"Ġfish":7944,"Ġfles":7945,"Ġfried":7946,"Ġfitted":7947,"Ġfont":7948,"atible":7949,"atisf":7950,"athetic":7951,"Ġbern":7952,"Ġbenn":7953,"Ġbann":7954,"Ġbald":7955,"itr":7956,"itch":7957,"itely":7958,"orial":7959,"orge":7960,"Ġpent":7961,"Ġpup":7962,"Ġporn":7963,"Ġpipp":7964,"Ġing":7965,"Ġinaug":7966,"isi":7967,"aron":7968,"arat":7969,"arth":7970,"Ġmama":7971,"Ġmtv":7972,"Ġmasters":7973,"anus":7974,"ancy":7975,"anagara":7976,"alers":7977,"asp":7978,"asgow":7979,"Ġdur":7980,"Ġdost":7981,"Ġdress":7982,"Ġdens":7983,"Ġdock":7984,"Ġdigg":7985,"Ġdwell":7986,"Ġdagen":7987,"Ġandrze":7988,"Ġhi":7989,"Ġho":7990,"Ġhou":7991,"Ġhab":7992,"Ġhaz":7993,"Ġhague":7994,"Ġhoard":7995,"rod":7996,"rog":7997,"rous":7998,"Ġtou":7999}